#version: 0.2 - Trained by `huggingface/tokenizers`
i n
▁ s
e r
r e
▁ c
a n
o n
▁ b
e d
▁ t
a t
▁ p
▁ m
a r
▁ f
▁ d
in g
a l
s t
▁ l
o r
▁ w
e n
▁ h
▁ a
i c
l e
i t
o u
▁ e
▁ n
i l
▁ g
r o
i s
o l
▁ re
r a
o m
e l
a m
i d
i on
a c
a y
o t
u r
k e
▁s t
▁d e
u n
i g
o d
a s
a d
v e
en t
▁ r
u s
o w
e t
▁ v
i m
c h
▁ in
e s
▁n e
▁ k
▁t h
i r
a g
▁ o
i re
c t
l y
▁l i
v er
h t
c k
a st
o p
▁c h
t h
a p
an d
▁ y
▁ j
l o
i a
at e
id e
s e
ac k
▁s h
u t
at ion
▁s e
r i
u l
u m
e m
f f
ou n
ig ht
an t
c e
il l
▁a m
s h
e ar
e st
▁ne w
▁l o
i st
or m
a k
s s
▁e x
al l
d er
▁ an
q u
t er
▁t ra
on e
i e
u g
▁c on
▁f ire
▁ ar
a ke
▁b l
▁s u
▁ al
a b
▁l e
ic e
▁w or
▁p l
it y
i p
▁s p
il d
n ing
om e
in e
a re
om b
at t
▁d is
ol l
▁li ke
ou t
▁g o
i f
ag e
▁t r
a il
▁ ro
h er
or t
e ct
at ed
oun d
ar d
p l
a v
el l
▁am p
▁p ro
o k
▁ ra
in d
p h
i an
▁b omb
u st
in k
g e
m er
en d
▁m an
al ly
e w
i ve
u b
u d
u re
▁w e
▁c o
lo od
i v
▁e v
r y
▁s c
▁s a
▁b e
p p
▁p e
▁c om
ro w
▁re s
a z
▁ û
▁ un
ic k
ar t
▁f o
ow n
▁p re
an n
u e
▁c oll
▁h e
es s
as s
st orm
▁ is
▁c ra
a h
is h
▁b o
im e
c c
c y
t y
a in
b le
u ck
▁f l
ou r
▁v ia
▁e ver
am e
ar y
or n
▁new s
u p
o s
▁c l
on g
▁h i
ou s
m ent
▁ qu
at h
o st
▁w ar
r or
▁b ur
▁w h
op le
b er
▁b u
p er
▁c al
▁w at
▁p ol
▁pe ople
ol d
t on
c l
i al
▁p h
▁k ill
▁ att
▁k n
as e
ou g
▁o ff
ast er
an e
g en
it e
▁ en
an g
▁b r
ac e
ide o
n a
b l
▁f am
re ak
od y
▁s ur
▁c ar
an ce
o c
▁v ideo
▁ us
▁c a
▁y ear
i z
s on
▁c r
▁t ime
re e
p ort
er ror
on d
▁m o
▁f lood
e e
l d
▁ im
▁cra sh
f e
▁e mer
▁f e
▁f at
gen cy
re am
ct ion
▁dis aster
▁t e
▁ever y
or y
en s
▁emer gency
▁m ar
▁t w
il y
▁att ack
▁h ome
▁a ir
am p
▁bu ild
i ot
▁s m
▁b ody
id ent
▁se e
o o
▁a cc
it er
▁in j
e p
▁de st
▁h el
us h
f ire
w ay
▁s er
▁a b
is m
▁con t
▁m ay
▁d ay
as h
o g
▁s ay
▁lo ok
re ck
▁re d
▁w reck
▁pol ice
▁build ing
▁fat al
▁d r
▁j o
u c
▁b ack
ul l
un d
o le
▁w ild
▁wor ld
a ve
an k
▁t od
ac t
▁de m
n ed
▁g re
ew s
▁ev ac
▁fam ily
▁st orm
▁li fe
o on
▁m in
▁ex p
▁sur v
▁evac u
▁ z
is s
▁tra in
▁cal if
el y
r u
▁e ar
▁ar m
f t
▁d er
▁kn ow
▁p o
▁a p
ap p
▁g u
orn ia
er n
on t
▁h ear
ic ide
▁res c
▁wat ch
s l
▁m e
▁m ass
▁de s
▁calif ornia
▁ out
▁s w
▁b ag
▁a d
▁su icide
▁bur ning
u al
ir st
oug ht
i o
▁l et
▁w ant
le ar
▁in d
▁wor k
or th
▁sc ream
▁coll ap
n i
r ic
▁r t
im a
re d
en ce
ac h
▁de ath
▁der ail
er s
it t
▁e m
▁e le
ot her
ir l
▁w ind
it ion
oun t
▁de ad
p t
▁c at
▁d am
am a
▁lo ve
ub e
▁p m
▁f irst
or d
ro y
n ews
▁g r
un der
ar m
▁d el
▁n orth
a w
c o
o ck
ur y
ig n
▁le g
i le
▁s ou
▁ne ar
▁th ink
▁tod ay
▁ up
▁b est
▁p er
▁d i
▁in ter
▁ca us
uc lear
b o
g ed
at her
▁m ake
▁l and
ic al
ad e
▁ne ed
▁th under
i um
re st
▁c ann
▁n uclear
l and
r is
▁l ight
it h
▁ch ar
ut e
▁t error
▁d row
ic t
▁re m
▁pl ay
e c
m an
ke t
ig h
p le
re n
▁w om
▁off ic
▁acc ident
▁cann ot
g er
re ss
▁f uck
al k
ow er
▁y out
▁ex pl
▁kill ed
▁dest roy
▁yout ube
o ke
▁re ad
▁de ton
▁go od
ect ed
▁fe el
j ack
▁b us
▁o k
▁se c
v ie
▁s ch
▁f ull
▁h or
ro sh
▁ra in
▁dem ol
▁b ro
▁b ig
▁re f
▁o bl
▁hi rosh
o od
▁ or
▁p an
▁w ay
▁hi jack
▁ at
▁b lood
▁t ake
▁m ur
▁in s
ap on
▁ser v
▁wom an
▁hirosh ima
▁s ink
an s
▁t ur
▁obl iter
d ay
v ing
▁b le
▁a f
▁a pp
le ase
▁r un
▁an ni
▁hel p
i x
o ol
▁m il
ur al
ir m
▁we apon
▁surv iv
▁m iss
▁l ast
▁a ct
ro ss
op e
▁mur der
n e
▁ x
▁f r
▁w ound
▁pl an
▁t y
▁m ed
▁h app
▁inj ury
e k
v el
x t
an ge
▁re port
▁o b
lo s
▁ev en
▁ph ot
▁ele ct
i er
▁con f
▁man y
b e
v ast
▁s l
ar k
is e
▁re c
ab le
▁res p
▁wild fire
h ing
o re
▁ ke
in t
▁h ost
od e
▁serv ice
b y
d it
▁ i
ro ph
▁j ap
b reak
û as
al e
▁h ot
▁a s
ou se
▁re al
▁r ight
▁r iot
▁th ank
▁bl ack
▁qu ar
▁resc u
▁collap se
u ch
▁ ir
▁s n
▁f or
▁l ong
▁h az
▁e y
▁wat er
▁c all
n ess
o f
om ic
are d
▁bomb ing
sl ide
h e
▁s et
▁c as
▁l ol
un k
ve st
▁r u
▁ch e
▁he ad
▁mil it
▁haz ard
▁ u
▁c re
▁c ity
an c
▁m us
▁f all
ot t
ul t
▁an y
▁c ome
at or
▁m h
▁f in
▁l ate
ist er
▁tra um
▁jap an
a ir
re t
▁e l
▁th ing
▁fatal ity
▁host age
▁quar ant
e x
i ver
i ous
s c
er ic
▁li ve
ast roph
ure d
▁arm y
▁cat astroph
g o
s ia
▁ end
▁s k
▁b reak
▁p art
▁g od
ro c
▁re ally
▁st r
em ber
▁ear th
▁sch ool
▁ref ug
▁phot o
a ug
▁c ur
▁p lease
▁d ri
▁w r
▁n at
▁de b
▁v i
▁com p
▁cr ush
▁a v
▁st op
▁an other
▁s in
▁c ol
▁f ear
▁h ail
ou d
▁n ot
▁st ate
▁st art
ad o
ad y
▁fo rest
▁leg ion
f ul
y p
▁ ed
on der
ic h
▁in vest
att le
▁en g
▁gre at
er t
▁p ost
▁m al
▁f un
▁û ï
ual ty
ed d
▁h igh
▁h ouse
le y
as ed
▁ne ver
▁th e
um mer
▁north ern
c on
▁m uch
▁h it
▁h ur
▁a c
is ion
▁in f
▁sh ow
▁red dit
▁demol ish
▁conf irm
▁legion na
a i
g ing
l ine
in a
▁c ross
▁t ri
▁m et
en ed
▁del ug
▁late st
▁legionna ire
e et
▁ old
▁c ent
▁c ap
▁c are
▁t op
ar ch
▁w ith
▁h ope
▁g un
id ge
ire n
▁li k
▁bomb er
iot error
▁ob ama
▁elect roc
a x
g a
s o
y ing
å ê
▁ ve
▁t ot
▁p ra
▁m on
▁g irl
el t
us p
▁am eric
ak ing
▁caus e
▁cas ualty
▁invest ig
g in
i es
in ed
▁s ome
▁b ar
▁p ick
or k
▁h ell
▁a ug
▁e b
id ed
▁sh it
ri end
▁we ek
▁bo y
▁dam age
b c
o ot
▁b ioterror
▁w ave
le ss
▁n ight
▁re p
ri st
all ow
▁is s
▁at omic
▁mal ay
d own
n er
▁s iren
▁b et
at ing
▁h and
▁g t
▁o p
▁ch ild
az e
▁fl ame
oug h
▁ty ph
g et
i ble
y c
▁s om
▁s ound
▁t on
▁f ree
▁d ra
▁a re
▁g ame
el f
▁ch ange
qu e
▁tr uck
▁sa id
pp ed
ang er
▁des ol
▁thunder storm
h il
n t
▁s usp
▁b ad
▁f oll
▁f ail
▁f ace
▁w a
▁e p
▁st e
▁st and
as on
▁o il
▁se ver
qu ake
▁we ather
▁up d
▁s ummer
at ch
▁f ight
▁de vast
▁k id
▁cont ent
▁offic ial
▁anni hil
i el
s p
t e
v ed
in ess
re at
▁c oun
at er
▁f ound
al th
▁de cl
ation al
▁com m
▁com ing
ru ct
▁sou th
l er
o b
r ant
▁p r
en ing
▁h um
ver n
▁war ning
▁mo vie
▁every one
▁inj ured
▁milit ary
▁earth quake
▁sin ce
a a
m e
▁ ur
▁t om
il le
▁g l
▁ar son
▁fo od
▁evacu ation
itt le
▁che ck
g t
i i
o se
t ing
y cl
▁ it
▁s and
▁b attle
▁p ut
▁m om
▁n ig
ro l
is ed
▁v ol
▁ne xt
ist an
▁inter n
▁ke ep
▁with out
▁malay sia
▁b el
▁p ower
▁m ig
▁m ad
▁l ittle
▁w ell
▁h ol
▁a w
ou ble
▁e ff
▁st ory
▁li st
th ing
ab y
▁flood ing
▁sm oke
way s
▁exp los
▁deb ris
▁are a
i ff
i ence
▁ ent
▁s ign
▁c an
▁p ak
▁m od
▁f an
ic le
ac ed
▁st ruct
us s
ver s
ip p
▁sp ec
▁ro ad
▁ro ck
oc al
▁light ning
▁wound ed
▁vi ol
▁upd ate
a j
y s
û a
▁b ra
▁b lo
▁m em
▁d anger
▁w est
▁a ff
it ed
it ter
▁g on
▁g en
▁in c
es h
▁o h
ff ic
▁ar t
▁go vern
▁tr ans
ud e
▁jo b
ru ction
▁gu y
▁hear t
▁terror ist
▁som et
▁mig rant
y m
▁ on
▁s elf
▁p at
▁su b
ub l
▁wh ole
ric ane
▁sink ing
▁break ing
▁nat ural
▁confirm ed
▁sever e
▁explos ion
b r
i ed
u k
u th
u ally
▁ ut
▁d own
al f
▁l ot
▁g ra
ra el
▁in st
sh ip
▁su pp
▁al ways
▁sa ve
▁he at
▁is rael
▁mar ket
▁fuck ing
▁refug ee
b ul
m a
r al
▁ id
▁s al
▁b ang
▁p ar
▁f riend
▁l oud
am i
▁in v
ut ed
▁sp ill
▁br idge
▁sn ow
▁foll ow
c an
l am
▁b aby
▁t em
▁h arm
▁re le
ra m
▁st ar
im ate
▁in und
▁ch rist
▁y ou
▁ex per
▁al so
▁ra d
▁co st
row n
▁per son
▁blood y
▁lik ed
▁some one
h ole
i k
er m
▁m ount
▁m ade
▁d o
▁d ust
▁h our
ou l
ou p
▁re g
▁re l
ap e
▁sh ot
▁le ad
ud i
az ing
▁evacu ate
▁scream ing
▁bus iness
▁miss ing
▁ir an
▁ey e
▁ton ight
▁fail ure
▁gon na
g an
i ke
l ing
r ing
s a
s ed
s un
z ed
▁s av
▁c our
▁c ycl
▁l ink
or row
▁w in
en n
▁a g
it ness
ot e
▁ch ina
▁y r
ri ble
um p
em on
▁am bul
▁tra pped
▁wor d
▁dis pl
▁sa udi
▁û ò
▁coll ided
▁bo ok
orn ado
▁im p
▁dr ought
▁min ute
▁out break
▁pan ic
▁surviv or
▁ru in
▁hur ricane
▁ambul ance
c ra
c om
o v
w ind
▁c op
▁m y
▁f ed
▁st ock
▁r ub
▁coll ision
▁is lam
▁ph one
▁te am
▁attack ed
▁wreck age
▁surv ive
▁resc ue
▁derail ment
▁rem ember
▁sink hole
▁rele ased
i b
i ent
▁c amp
ed ing
▁t ren
at a
▁p ast
▁m id
▁m ud
▁m os
▁f ar
st er
it ch
▁de p
un ion
ul f
▁ar ound
ann a
▁is land
iz z
▁ap ocal
▁char ged
▁expl ode
▁destroy ed
▁rescu ed
▁iss ue
▁coun ty
ubl ic
a u
f l
t s
u ff
v ille
w ood
y n
▁s end
▁f av
▁h und
▁h alf
▁de c
ag edd
ht er
▁ch em
▁su re
▁su per
pl ane
▁bur ned
▁wh ite
▁tw ister
oo oo
▁dest ruction
▁wreck ed
▁ad d
▁gr oup
▁land slide
▁expl od
▁surviv ed
▁rescu er
▁traum a
▁pak istan
cra ft
▁hund red
agedd on
i j
▁c ame
▁t o
▁t alk
▁t ornado
▁m or
▁m ot
▁m elt
▁l ab
▁l av
en e
▁h ar
▁a way
▁re t
ac re
ke y
▁an g
▁bo at
▁po ss
▁terror ism
▁offic er
vie w
▁or der
▁thank s
▁catastroph e
▁wa it
▁viol ent
f ew
g ary
k k
y a
▁s unk
▁m ust
▁h un
▁de al
▁v ict
ch e
▁th ought
▁sh oot
▁co ol
▁be a
▁cl iff
▁wh irl
ens ive
▁air plane
▁ab c
▁arm ageddon
▁mass acre
▁collap sed
▁wind storm
ged y
▁mus ic
▁quarant ine
▁cur few
▁eng ulf
▁delug e
▁investig ator
▁susp ect
iel d
▁sand storm
▁vol can
▁bel ie
▁eff ect
▁struct ural
▁mud slide
▁whirl wind
b al
e av
g r
h h
i ant
n y
w e
▁s y
▁s en
▁s ong
▁s oon
▁t ell
at ised
▁h ard
▁a ust
▁n ational
ur s
▁de f
▁r d
im al
▁y e
▁j ust
▁sh ip
▁se arch
ff er
▁ex t
▁tra gedy
▁bl ast
▁le ast
are s
▁dis e
▁bomb ed
▁sa w
▁fo ot
▁pre s
ann ed
▁crash ed
▁scream ed
▁drow ning
▁sec ond
▁riot ing
▁quarant ined
yp se
▁aug ust
▁bet ter
▁devast ation
▁displ aced
▁chem ical
▁engulf ed
d el
j o
w h
▁ om
▁s at
▁s il
▁s oc
at ter
▁p al
▁p ic
▁p and
▁p ass
▁m en
▁f re
▁d on
▁w anna
id er
▁r iver
im es
▁pl ane
av y
▁un der
ick ing
▁fam ine
▁hear d
co ver
▁drow n
▁hor rible
▁ble eding
▁af ter
▁anni vers
▁hazard ous
▁traum atised
aug hter
▁desol ation
▁tom orrow
▁inund ated
▁mos que
▁apocal ypse
▁explod ed
▁annivers ary
b ag
b all
c ome
p e
▁s un
re et
▁c le
▁c ount
▁t sun
▁p et
▁d ire
▁l ady
ic y
▁re act
▁st ay
▁st reet
et y
th e
th er
▁bl own
▁le ft
att ened
▁tr ouble
▁pro j
▁coll ide
▁he alth
▁cal gary
▁tw itter
▁derail ed
▁deton ate
▁ble w
ne y
▁as k
▁catastroph ic
▁electroc uted
▁hum an
oul der
emon ium
▁fed ex
▁lav a
▁bea ut
▁volcan o
b ab
l in
l ier
n n
▁b c
or s
▁w ent
▁w alk
▁h ist
ol og
▁re union
es e
▁th reat
▁sh oulder
▁pro t
▁ra zed
▁pre p
▁is i
▁fl attened
cl us
▁mo ve
▁mar k
▁evacu ated
▁z one
▁me an
▁sw allow
▁ind ia
▁pan icking
▁ins ur
▁resp onder
▁eb ay
▁typh oon
▁aff ected
▁govern ment
▁somet hing
▁melt down
f ight
h an
s ide
z y
▁ ic
▁c am
▁p ot
▁m ag
▁m ill
▁f ind
▁d og
al an
▁l ow
▁w ash
▁h ah
ur ity
▁st ri
▁v ir
ch er
▁o ver
▁tra ffic
▁bl ue
▁bl azing
if ul
▁tr y
pl ay
ew itness
▁pe ace
▁fo re
▁us e
ee k
▁hijack er
▁hijack ing
▁murder er
▁sk y
▁americ an
▁poss ible
▁pand emonium
▁beaut iful
b ur
d e
m y
v en
▁s ite
er o
▁c ase
an y
▁t own
at ive
▁p op
▁p ark
▁p kk
▁d en
▁d ro
▁d ue
▁w onder
▁h ug
▁n ow
▁re ason
▁k ind
ut er
um ber
▁pl ace
if e
ail y
▁pol icy
bl aze
▁tw eet
▁air port
▁bag ging
▁caus ed
▁deton ation
▁deton ated
▁sec urity
▁demol ition
▁obliter ated
▁med ium
▁long er
▁ey ewitness
▁crush ed
▁not hing
▁cap t
▁annihil ated
▁blo ck
▁tsun ami
m ar
o e
o ice
s w
t en
u ed
▁ er
▁ ant
▁b ay
▁b ush
▁p ain
▁m p
▁m aj
▁d ie
▁l ar
▁l ear
or ry
▁a ss
▁th ree
▁y et
one y
▁le vel
▁be y
▁pre break
▁us ed
ism ic
▁cont rol
▁drow ned
▁obliter ate
▁obliter ation
▁u ph
▁demolish ed
▁hell fire
▁mem ory
▁shoot ing
▁aust ral
d le
i ally
u z
y le
▁s ad
er g
re ady
▁c los
▁m ess
▁m aking
▁d one
st on
▁w ake
en ger
▁h at
▁h old
▁a sh
ic s
le t
it al
▁n o
▁st ret
ent ion
▁r ise
▁k m
▁se ismic
ie f
▁con c
▁al ready
▁go v
iv ely
▁off ensive
▁br ing
▁hor ror
▁ins ide
▁americ a
▁nig ga
▁trans port
▁supp ort
▁cycl one
▁belie ve
eav al
▁count ry
▁uph eaval
k a
m m
û at
▁ ign
in s
▁s im
▁c ou
▁b rown
▁t est
▁t ree
▁p ay
▁p ur
▁f orm
▁w ed
▁a ction
▁a blaze
ic op
it s
▁g e
▁re st
▁st ud
▁v ill
▁in t
ire d
▁j on
em ent
▁su e
▁le ave
are nt
▁be gin
▁com ple
▁û ó
▁he y
▁cl ass
▁br it
ond e
▁te ch
▁po int
▁di ed
▁feel ing
▁rain storm
▁tur key
▁act ually
▁fr ont
▁cre w
▁electroc ute
▁mon th
▁israel i
▁snow storm
▁fav or
▁react or
alan che
a f
a im
c ed
c al
h n
h em
h icle
l im
t own
▁ other
▁s ol
▁s ide
▁c d
▁c iv
on s
at s
▁f act
▁d av
▁l ine
▁w w
▁a go
▁n y
il m
▁g row
is is
▁re û
▁o cc
and e
▁y es
lo ad
▁sh are
▁se x
ri an
oun g
est er
▁fire fight
▁bl izz
▁al m
▁tr ying
▁pro m
▁pro v
▁co ver
▁sa f
▁pre ss
ber t
▁year old
▁hel icop
▁tod d
▁near by
vast ated
he ad
▁comp uter
▁decl ares
▁hol ly
▁gen er
▁on line
▁vict im
▁now play
▁stret cher
▁civ il
▁helicop ter
h am
s y
w ard
▁ all
▁s an
▁s ing
▁s ens
▁c ry
an a
▁m ic
▁m ich
▁f ast
▁d an
▁l t
▁l iter
▁e ast
▁r is
▁j e
▁j ack
▁an imal
▁con clus
▁wor st
ip an
if t
if ic
av ing
▁fo x
▁pre t
▁ph il
iz e
iz ed
▁sou del
▁any thing
▁av alanche
▁delug ed
▁bioterror ism
▁op en
▁list en
▁rub ble
▁ye ah
▁hist ory
▁swallow ed
▁maj or
▁nowplay ing
n et
o onde
s er
s et
w ork
▁ q
▁ ol
▁b en
▁t v
▁t ar
▁f lo
▁d ata
▁d aily
or g
▁n w
▁n ame
▁g lo
▁g em
▁k ing
▁an n
▁an th
ie ce
▁con d
▁bl ight
▁al arm
▁sp ot
▁ro b
▁pro per
▁sa ipan
art ment
▁cra zy
ble m
▁fl ag
▁cl aim
▁qu est
▁kn ock
na ij
▁air craft
▁may be
▁watch ing
▁out side
pt ion
▁big ger
▁ru le
▁cent er
▁hand bag
▁typh oonde
▁christ ian
▁blizz ard
▁alm ost
▁conclus ively
▁typhoonde vastated
l l
l ed
o id
s f
▁ allow
▁s o
▁c or
▁b bc
▁p ublic
▁m oney
▁l a
▁a ut
le s
▁e st
il ity
▁g b
▁re ut
el a
am ade
ot ion
ur n
▁r ich
▁r uss
▁li e
um b
ak en
▁tra ck
▁sp ace
▁tr ust
▁pro bab
▁co ach
▁be h
▁he avy
▁fl ash
▁te x
▁cont in
▁dr ink
▁gre en
▁min er
▁ad v
▁best naij
▁inter est
▁sec ret
▁happ y
▁any one
▁wr ong
▁ve hicle
▁mom ent
▁sav ed
▁mot or
▁search ing
▁soc ial
▁dire ction
▁proj ected
▁liter ally
▁pret ty
▁reut ers
▁bestnaij amade
b s
c a
d ale
g ress
w x
w y
y y
▁ ide
▁s on
▁c ut
▁c ake
▁b ut
▁b ill
▁b all
▁p ort
▁m ight
▁m ish
▁m ain
▁f le
▁f reak
▁f ilm
▁l aw
▁w ow
▁h ero
▁n d
▁n umber
▁g iant
▁de t
▁ne igh
▁th ous
▁th ough
ir ing
ct or
▁am id
sh ock
▁lo st
ie w
▁bl aze
▁man sl
iv ing
▁pre v
▁every thing
▁see k
▁dam n
▁ok ay
▁u k
▁mus lim
▁fin ally
▁col or
▁tot al
▁exper t
▁rad io
▁tren ch
▁mor ning
▁om g
▁after shock
▁cou ple
▁vill age
▁dav id
▁firefight er
▁holly wood
▁soudel or
▁probab ly
▁neigh b
▁thous and
▁mansl aughter
e en
g s
▁ å
▁s orry
▁c omb
at es
▁p am
▁m eek
▁f uk
▁d y
ing ton
▁l ord
▁h ate
ic ag
le ep
▁e t
▁e qu
▁e sc
▁g ive
ra ge
es day
▁th urs
ir d
▁ch ance
▁y ork
▁y oung
▁se en
ug ht
▁bl ow
▁le ather
if ied
ell er
▁pro blem
▁co ast
os p
▁ca ught
▁cr isis
▁fe ared
▁ser ious
▁po or
ont o
▁me et
▁em otion
▁near ly
▁refug io
▁dri ve
▁hail storm
▁desol ate
▁annihil ation
▁you th
▁cost lier
▁cour se
▁mill ion
▁austral ia
▁proper ty
▁tex as
a ul
b ack
f c
f ield
g ra
g est
k n
t ed
er e
▁c nn
▁b ed
▁b anned
▁t or
▁p il
▁f em
▁d ont
it ing
it her
▁g al
id ay
un e
us e
▁v al
ear s
▁ex c
▁ev ent
▁com ment
▁res ult
▁cl imate
▁bur n
▁car ry
ond on
▁may hem
▁sou l
▁tur n
▁report ed
▁rec ord
▁for ce
▁call ed
▁dri ver
ert ain
▁pra y
▁pick ing
▁decl ar
▁arson ist
▁nig er
▁ent ire
▁ut c
▁sil ver
▁pal est
▁hug e
▁other s
▁gb bo
▁russ ian
▁ide a
▁fuk ush
icag o
a el
c le
e ed
e ad
i ation
j ect
l ist
r on
y d
in al
▁s it
▁s ent
▁s qu
▁s itt
re m
re w
re en
▁c lo
▁c anc
at ic
▁p ath
▁m ine
▁m ph
▁f our
▁h on
ic ket
▁e con
▁g op
ro om
ol a
ol ut
ra x
am ed
ot h
▁st ra
▁v iew
ag as
▁j am
ri ed
ak i
▁con s
▁ar rest
▁sp ort
▁tr uth
▁be ach
▁be come
▁un ited
own er
▁bo x
ain s
▁us a
ash ion
▁jo hn
▁ind ian
▁play ing
▁milit ant
iver s
▁comp any
▁ac ross
▁met ro
▁dra ke
▁ep ic
▁spec ial
▁ang ry
▁cam er
▁hah a
▁clos ed
▁ign ition
▁wed n
▁favor ite
▁todd ler
▁glo bal
▁anth rax
▁mish ap
d p
d en
g y
h a
o ff
u ke
y l
▁c ant
▁c ree
an mar
on y
▁b an
▁t ro
▁t ow
▁t aken
▁p iece
▁m c
▁m ember
▁f ashion
▁d a
▁d ate
▁w ill
en c
▁a uth
▁g as
ro ad
ol lo
am in
▁de ep
un t
us sia
et h
es ome
▁ex ch
▁ar ri
▁al one
▁sp ring
▁ro om
mer dale
▁be at
▁fl ight
▁qu iz
▁pol it
▁fe at
▁te en
▁ab s
▁look ing
▁em merdale
▁app ears
▁run ning
▁act iv
▁happ ened
▁str ong
▁av oid
edd ing
▁cent re
▁tot ally
▁iss ued
▁gt gt
▁tem ple
▁my anmar
▁dise a
▁pass enger
▁stri ke
▁lar ge
▁lear n
▁brit ish
▁ris k
▁tar get
▁thurs day
▁declar ation
▁fukush ima
d ict
f er
m us
m ond
o x
o ve
s m
s u
u el
▁ ug
▁ ud
▁s leep
▁c e
▁b it
▁t ill
▁p ull
▁m op
▁m ap
▁f al
▁f ant
▁d ude
al d
▁l ed
▁l ake
▁l ondon
▁h ill
▁e u
▁n agas
▁g erm
ol f
▁re lease
om a
▁de v
as y
et her
▁v is
▁o pp
▁li by
▁ch ile
▁ch icago
and on
▁se em
▁se ason
ri b
ul ation
ant a
▁an c
▁an sw
▁al b
▁dis ney
▁un con
▁cra ck
ain ed
▁sm all
iter r
og ra
▁exp ect
▁ear ly
▁ap ollo
▁want ed
▁per f
▁di ffer
ren t
▁read y
▁hor se
▁bro ad
▁med iterr
▁resp ond
▁fin anc
▁el se
▁part y
▁dri ving
▁the ater
▁inf o
▁reddit s
▁devast ated
▁comm un
▁down town
▁down load
▁inst ead
▁inv ol
▁mount ain
▁cour t
olog y
▁prot ect
▁insur ance
▁wash ington
▁vir gin
▁stud ent
▁civil ian
▁mich ael
▁quest ion
▁beh ind
▁answ er
a an
b it
d es
d esh
f a
g g
g le
h ya
i at
l a
m p
m ed
p ed
p ol
r ick
t a
t w
u h
▁ and
▁ ill
▁ owner
in ist
▁s ig
▁b b
▁b ud
▁b itch
▁t er
▁t aking
▁p ri
▁p pl
▁p arent
▁m i
▁m ind
▁m ult
▁m atch
▁m ention
▁d j
▁d ad
▁d ist
▁d ance
▁d ream
▁d ark
st and
▁l uck
▁l amp
▁l ma
▁w all
en se
▁h o
▁h air
▁h iring
▁g ave
▁g ott
is on
▁re se
el sa
ac y
ad a
ve s
▁r ly
▁r ussia
▁v ote
ast e
▁sh ift
ri e
orm ation
ter n
▁wor ry
ip e
▁tr ue
her e
▁pro d
▁ra il
▁sc ared
▁sc ene
pp er
▁qu ick
ath an
▁im age
▁jo in
act ic
▁out rage
red dit
▁land ing
▁tur ned
▁ble ss
▁af g
▁af ric
▁app ro
▁fun ten
▁care er
▁tot e
▁pra desh
▁stand ard
▁mad hya
▁aw esome
▁pat ience
▁sub reddit
▁follow ing
▁mid dle
▁add ed
▁dise ase
jo y
▁bay elsa
▁gov t
▁form er
▁color ado
▁esc ape
▁niger ian
▁clo se
▁wedn esday
▁nagas aki
▁liby a
▁anc ient
▁funten na
▁subreddit s
a ff
b t
b ody
d y
f or
f ro
f irm
g u
g al
i ety
m on
m ore
n o
o en
p s
p ris
t v
t ime
in ian
▁s am
▁s ick
▁s old
er man
re l
▁b re
▁b as
▁b ir
▁b ul
▁t it
▁t old
▁t able
▁t ax
▁p un
▁p ack
▁m ile
▁m ix
▁m ode
▁m ax
▁d c
▁d ouble
▁l im
▁a ve
it or
▁g m
▁re view
el ine
ac ter
▁v ers
▁th row
▁o per
ly n
▁se a
ce pt
▁am az
▁am ong
▁lo s
▁tra vel
▁wor se
ip h
ian s
os ed
▁qu een
▁off ice
▁en ough
ens ion
▁see ing
▁acc ount
▁ser ies
▁gu ess
▁des c
▁des ire
▁work ing
▁wind ow
▁think ing
▁up on
▁bro ther
▁big gest
▁fr ance
▁i û
▁gun man
▁lik ely
▁eb ola
▁par ole
▁dep artment
▁pakistan i
▁pot us
▁capt ure
▁hold ing
▁jon athan
▁tech n
▁gener al
▁neighb our
▁pam ela
▁gal actic
▁palest inian
mus ic
▁uncon firm
▁lma o
▁rese arch
▁afg han
▁unconfirm ed
b or
c ast
d c
e v
f all
f riend
g ram
h ar
i or
l ah
m ator
n s
n ect
p re
p ar
s k
w s
w ar
in c
▁c old
on es
▁b ic
▁t un
▁t im
▁p aul
▁l ou
▁w el
▁w ish
▁w aving
▁w edding
▁h om
▁a k
▁a ud
▁a head
▁n yc
▁g ay
▁g old
▁g eller
id a
▁r out
▁in cl
▁k ick
ir t
ag ed
▁li ving
▁y o
▁y yc
se c
ut ion
ul ar
▁lo cal
▁al ab
▁pl anned
▁ro ss
▁pro f
ph y
▁un it
▁te xt
▁ab andon
▁exp ected
▁gr ound
▁play list
▁or ig
▁tur k
▁cre mator
▁fall ing
▁japan ese
▁str ug
▁start ed
▁fun ny
▁tri ed
▁investig ating
▁rep ublic
▁gl ad
▁intern et
▁rock y
▁art icle
▁do or
▁lead er
▁don ûat
▁under stand
▁pet ition
▁prep ared
▁cd t
▁occ ur
▁prov oke
▁saf ety
▁phil ipp
▁interest ing
▁motor cy
osp ital
▁arrest ed
▁alb um
▁differ ent
▁financ ial
▁alab ama
b an
c us
g l
h amp
i am
i est
m ing
p ro
t f
w o
w an
w est
y on
z en
in o
▁s und
er c
▁c able
▁b ear
▁b ath
▁t re
▁t ai
▁t reat
▁p c
▁p as
▁p ile
▁p ict
▁m ary
▁m atter
▁d oc
or ity
or ge
▁w m
en al
▁h a
▁h am
▁h ospital
le ct
▁n on
▁g iving
▁re pl
el ve
un g
un ch
od ay
▁v an
▁k ur
ag er
▁y ah
lo ck
lo ok
▁sh ort
ut ch
em oon
sh ot
▁con st
▁ar ian
▁al ex
▁sp e
▁dis app
▁pro ph
▁pro gram
end ing
▁sc reen
▁res ident
ish ing
▁bo ard
▁bu y
▁kill ing
▁off road
▁cr ime
▁cr ane
▁im ag
▁mar ians
▁tw elve
▁ab a
▁gu ide
▁gu ard
▁del ivers
bo ok
▁char acter
▁ok lah
▁bro ok
▁rec ount
▁for g
▁str ate
▁cur rent
▁inf ormation
▁cent ral
▁week end
▁ep is
▁pr ice
▁gl ass
▁it al
▁intern ally
▁west ern
▁govern or
▁somet imes
▁sal t
au x
▁to ok
▁ang el
▁sen se
▁prep are
▁insur er
bur g
▁sing le
▁et c
▁pil ot
▁sitt ing
▁abs olut
▁ud hamp
▁commun ity
▁bir th
▁cremator ium
▁occur red
▁sund ay
▁tai wan
▁oklah oma
b ro
d on
f ord
i en
k i
u ly
v d
w a
w w
▁ ig
in y
in st
▁s ar
▁s ix
er ry
re s
▁c ow
an i
on se
▁b ell
▁b ank
▁t og
at ri
▁m l
▁m r
▁m ac
▁f ut
▁f elt
▁f uel
▁f aux
ing er
al ity
▁l il
▁l ane
▁l ater
ic a
ou ch
ou ld
▁n ice
▁n av
▁n ick
▁g one
▁re ach
ra cy
el ly
▁st ream
▁st ress
od d
ent ial
▁r id
▁r ate
▁r ip
ch at
▁th r
ag ue
▁sh ape
ut y
ul ly
em a
▁lo ss
▁lo ved
ak er
▁ex amin
ug u
▁ar ab
▁sp ark
▁tr ump
iv en
▁fl or
▁kill er
▁en ugu
ang ing
▁us at
▁us ing
▁air line
▁say ing
▁exp ress
▁ap c
▁ad m
▁ind ust
▁em p
bo x
▁play ed
▁bro ke
▁help ing
▁fr iday
▁happ en
▁happ ening
▁even ing
▁resp onse
▁wr ought
▁met al
▁pra ct
▁susp ected
▁comm on
▁intern ational
▁ent er
▁can ada
▁you û
▁reg ion
▁link ed
▁islam ic
▁ret urn
▁pres ident
wh en
▁walk ing
▁den ver
▁bey ond
▁fox news
▁stra ight
▁camer oon
▁eu ro
▁invol ving
▁sold ier
▁vers ion
▁amaz on
▁techn ology
▁turk ish
▁strug gle
▁philipp ine
▁proph et
▁brook lyn
▁epis ode
▁absolut ely
▁udhamp ur
▁fut ure
b ie
g on
g ic
h ol
h ear
k ing
m as
m et
n am
o ss
o gen
r r
r ation
r up
u ation
w here
y e
▁ ice
in es
in der
▁s ister
▁c ro
▁b in
▁b ow
▁b row
▁b ase
▁b atter
▁t en
▁t icket
▁p ap
▁m att
▁m umb
▁f ra
▁f ort
▁f ive
▁f und
▁f ix
▁f air
▁f ully
▁d ar
▁d or
▁d ub
al t
al ing
▁l at
▁w ood
▁w ife
▁w tf
▁h il
▁h aw
▁a h
ic o
ic ation
ic ip
▁e sp
▁n c
▁g ust
▁g erman
▁re cover
ra d
ra in
id ence
▁st ad
▁st uff
un ging
▁r ound
▁r ather
us ed
▁k it
▁th o
▁li ft
▁ch ief
▁j ul
lo ve
▁sh ar
▁sh ad
▁sh ut
um ent
ff ee
▁lo ad
▁lo ck
▁lo se
▁tra p
▁su ffer
▁al ive
▁al ong
▁wor th
▁pl ant
▁pl unging
▁sp ac
are n
▁dis cover
▁ro ose
▁ro bert
▁co ok
az a
▁pre m
▁pre dict
our ce
▁ph oen
▁en v
▁sur pris
▁mo ving
ens o
▁sm aug
ism o
▁jo e
▁dem on
▁train ing
▁sw im
io ch
pt ic
▁caus ing
▁play er
vel t
▁phot ogra
▁set ting
▁any more
▁ed m
▁ûï when
▁hur t
▁cap s
▁rep atri
▁ste ph
▁fight ing
ipp ed
▁spec ially
▁inc re
▁inc ident
▁sav ing
▁ag ree
▁imp act
gr ound
▁cle an
ors enso
▁fore ver
▁pop ulation
▁kind a
▁ant ioch
▁mess age
▁pur se
▁sens orsenso
▁jack son
▁allow s
▁rich mond
▁prev ent
▁path ogen
▁perf ect
▁afric a
▁table t
▁lou is
▁republic an
▁pict ure
▁tog ether
▁usat oday
▁indust ry
▁stad ium
▁roose velt
▁phoen ix
a e
b u
b ar
b ing
c i
c ot
d o
d ing
g irl
h al
h ost
h ood
j ay
k s
k en
l ife
m u
m ag
o int
p or
r ight
r ande
t ion
t imes
u ce
w eet
x x
y al
y ou
▁ ult
▁ ille
▁s id
▁s ir
er ence
▁c lear
▁c ertain
on ce
▁b ased
ed s
ed u
▁t ear
▁m un
▁m ist
▁m ort
▁m ike
ar ious
▁f t
▁f ro
▁f ly
▁f ren
▁f erg
▁d oll
▁d aughter
al m
st ar
st em
▁l u
▁l ion
▁l ad
▁l ang
▁l aug
or ld
▁h op
▁a ver
▁a ble
ic ally
▁n as
▁n et
▁n avy
il ed
▁g am
▁re n
▁re ve
ra q
om m
om y
ur ch
▁st age
▁st ep
▁de g
ent al
et t
▁v ac
im age
ch ester
es se
ag rande
▁o c
▁o ce
▁ch ill
▁y all
▁j ay
▁j et
▁j ew
▁j ud
▁j our
▁se attle
ri f
ri ke
sh ow
▁lo c
▁al le
▁le aving
her o
▁com pl
▁qu ote
▁bu ff
▁en joy
▁br ought
oc ide
▁us gs
▁acc ord
ash ville
▁dr one
▁dr unk
uc ed
▁ear lier
▁sw eet
▁gr ill
▁del ay
▁up set
▁di am
▁inter view
bo y
ris on
▁destroy s
▁read ing
▁or gan
▁at l
▁app arent
▁happ ens
▁elect ric
▁sl ow
▁i raq
▁sn ap
▁for get
▁sk in
▁deb ate
▁col le
▁not ice
ful ly
oot h
aa aa
▁eff ort
▁mod ified
▁struct ure
ipp ing
▁bra in
▁danger ous
esh ip
▁self image
▁gra b
▁tem per
▁rad iation
▁tren t
▁talk ing
▁sy rian
▁just in
▁foot ball
▁prot est
▁block ed
▁ge org
▁comple te
ande al
▁je b
▁cond ition
▁fle et
▁emotion al
▁carry ing
▁canc er
▁hon est
▁cons ider
▁epic ent
▁exch anging
▁fal se
▁luck y
▁gott a
rie f
▁bul let
▁oper ation
▁rout e
▁abandon ed
▁arian agrande
▁birth day
▁haw ai
▁shad ow
▁spac eship
▁repatri ated
▁oce an
▁accord ing
a o
a û
b omb
b ound
c r
c ar
c ent
c ake
e er
e at
f it
f ace
g ent
i ro
l ive
m in
m fa
n b
n el
p ect
p ost
p ical
s b
s n
s û
s os
t le
u it
u pp
u art
v al
v is
v ely
w alk
w atch
in ce
in ton
in ema
▁s ismo
re ad
re me
▁c n
▁c ir
▁c ab
▁c ust
▁c up
▁b y
▁b att
▁b out
▁b ound
▁b ott
▁t ent
▁t ip
▁t enn
▁t ired
▁t ension
▁t ouch
at ure
▁p sy
▁p dp
▁m f
▁m ach
ar ian
▁f it
▁f est
▁d m
▁d om
▁d ig
▁d ying
al o
st ep
or ation
or der
or ial
▁w d
▁w x
▁w oke
▁h y
▁h ob
▁h wy
▁a id
▁e at
▁e ither
▁n one
il t
▁g ar
▁re v
▁re qu
om as
ac her
ay er
ot ing
▁st one
un es
▁r n
▁r and
im b
im inal
▁k ar
▁th at
▁th em
▁o ption
▁li f
ast ic
op h
op er
▁ch oice
▁ch urch
▁y ester
▁j ama
se a
▁sh el
▁sh op
▁sh all
▁se at
ight ly
ist ic
all en
ter an
▁tra m
▁tra il
▁con nect
▁al as
ip ment
▁ro t
av en
▁ra y
▁man chester
▁we ird
▁co ffee
iv al
▁sc ience
▁un f
▁un lock
▁cl oud
▁qu ite
ane an
▁en c
bl ing
▁us ually
iz ation
▁cr uz
▁mo on
▁hel lo
▁po ol
▁me at
▁des ign
itt en
▁dead ly
▁cat ch
▁dam aged
▁leg acy
▁char l
▁rem ove
ress ed
▁bro ken
▁app ly
go v
▁col our
▁ve teran
▁rep air
▁foll ower
▁inc red
▁supp osed
▁rel ief
▁dec ision
▁wait ing
▁ext reme
▁sat ur
▁proj ect
▁human ity
lin es
olog ical
▁pot ential
▁kind le
▁ww ii
▁grow s
▁prom ise
▁all ah
▁flo or
▁rob ot
▁cor re
▁comb o
▁equ ipment
▁fem inist
▁squ ad
rem ely
▁econ omic
▁tow ard
▁sleep ing
▁seem s
▁mediterr anean
▁sig ned
▁mult ip
▁ho bo
▁appro ach
▁afghan istan
▁wel come
▁incl ud
▁doc ument
▁imag ine
▁current ly
▁examin ing
▁brow ser
icip al
▁ille gal
▁mun icipal
▁fren ch
▁ferg us
▁deg ree
▁hawai i
▁psy ch
▁yester day
b i
b ot
b ut
d d
e el
e ast
f o
g n
j ust
k o
k er
k id
l ad
m c
n al
p a
p d
p o
p r
p ing
r ound
s ch
s ian
t ra
t ely
u es
v ation
w f
w ol
z e
z z
z il
▁ ot
▁ ie
▁ ian
in ah
▁s i
▁s ale
re y
▁c ast
▁c ard
▁c row
▁c inema
▁b i
▁b at
▁b and
▁t al
▁t our
▁t ank
▁t rol
▁p ill
▁p ip
▁p uss
▁p itch
▁p rison
▁m a
▁m d
▁m t
▁m is
▁f ill
▁f ine
▁f if
▁f ell
▁f inger
▁d id
▁d ry
▁d nb
al ia
or se
▁w ing
▁w is
▁w ear
▁w ont
▁w ould
en g
en der
en ews
▁h as
▁h uff
▁a ge
it ude
▁n bc
ra p
ra y
id ual
▁st ab
▁st up
▁st ore
as ure
ent ly
▁r on
et nam
▁v a
▁v oice
ch or
▁in n
▁in ch
▁ne g
▁k er
▁k omb
▁o f
▁ch allen
th ood
and a
and y
▁y ell
▁j ac
▁j im
lo y
▁sh ower
▁sh oe
▁se ven
▁am azing
▁new y
▁lo op
▁lo ving
▁lo ose
▁lo vely
▁ex it
▁ex ec
▁ex cept
ab e
▁sp l
▁sp in
▁sp os
are a
▁dis c
▁dis rup
▁go al
▁tr fc
▁ro l
▁ro m
▁ro ot
▁ro se
▁ro of
ell ite
▁pro gress
ok ing
▁ra p
ind s
▁co ck
▁sa fe
▁be e
▁be gan
▁cra p
ah ah
▁fl at
ber ry
▁cal m
cl ist
▁ph ys
▁kn ee
▁off er
▁en em
▁us er
▁cr iminal
▁fe ed
▁every where
▁mar ia
▁ab storm
▁dr ill
▁dr ug
▁world news
▁dem oc
▁min ister
ru it
▁ap artment
▁hear ing
▁out look
▁ad ult
▁work er
▁gr and
ile t
▁per cent
bo ard
▁rec all
▁resp ons
▁ir andeal
▁for b
▁cre ate
▁fin al
▁wr iting
▁vi etnam
▁stop ped
▁eng ine
▁eng land
▁high way
▁confirm s
▁tri bal
▁care ful
▁op ening
▁ste ve
▁kid n
ycl ist
▁it unes
▁battle field
▁can yon
▁bra zil
▁blo g
▁gen ocide
ym p
▁inund ation
▁do zen
▁rel ated
▁lead ing
▁ag re
▁rub ber
▁hun t
▁hun ter
▁sy stem
▁sat ellite
▁fre sh
▁ask ed
▁fore cast
▁bey once
erg y
▁ge orge
▁comple tely
▁prom pt
▁press ure
▁sens or
▁ann oun
▁aut om
▁est imate
▁contin ue
▁direction ers
▁but ter
▁total ing
▁serious ly
▁meet ing
▁sit uation
▁econ omy
▁ce o
▁fant asy
▁vis it
▁bud get
▁quick ly
▁lim ited
▁bic yclist
▁orig inal
▁prepared ness
▁motorcy clist
▁strate gy
▁flor ida
▁pract ice
▁hil arious
aren thood
▁lad en
▁reve al
▁diam ond
▁georg ia
▁honest ly
▁epicent re
▁hob bit
▁puss y
▁stup id
▁komb at
b a
b h
b ra
b ell
c are
c ial
e xt
f an
h ive
i h
j k
l ict
m al
m ad
n d
n oon
o op
o red
p et
r ia
r ated
u ction
v y
w n
w orld
y an
z a
▁ onto
▁ iph
in j
in er
▁s r
▁s ac
▁s um
▁s ource
er ned
re sc
re ll
▁c um
▁c art
▁b al
▁b ought
ed y
▁t ed
▁t ac
▁t ong
▁t onto
▁t cot
at o
at re
▁p ed
▁p le
▁p ac
▁p oll
▁p age
▁p oc
▁p ump
▁p arenthood
▁m at
▁m ht
▁m ont
ar s
▁f aan
▁f ruit
▁d t
▁d ick
al ert
st e
st one
▁l es
▁l one
▁l mfa
▁w ire
▁w ired
▁h wo
▁a im
▁a uss
ou th
▁e asy
▁n h
▁n u
▁n ation
▁n orm
▁n ah
▁n urs
▁n ashville
ro t
is ory
▁re op
▁re aû
ra ct
ra ctor
am ing
ion s
ay l
ot a
ur an
▁st ick
ig an
as ion
▁r idge
us a
▁v in
▁v ul
▁v ine
im p
▁in ner
es û
es id
▁k i
▁k en
▁k iss
▁th et
▁th omas
ir on
ir it
ag an
▁li br
▁ch ann
▁ch amp
th at
and er
and ed
▁j an
▁j st
ate st
▁sh ame
▁sh ock
▁se pt
ri ption
em e
oun der
ant ly
ill a
ist ant
ak ed
▁ex act
▁an chor
▁su ck
▁pl us
▁sp an
▁sp ent
▁sp irit
▁dis co
if i
▁ro w
▁ra c
ph ant
end ed
ure s
▁we ak
▁we alth
▁sc ott
▁be com
▁com mer
▁un s
▁un ion
▁un less
▁fo g
▁pre c
ish ed
▁bo b
ain t
▁cl ip
▁cl ub
▁war ship
cl oud
▁kn ew
▁br uh
▁sur round
iz es
▁mo ved
▁fat her
▁tw ice
amp le
▁sm h
▁acc ess
▁hel d
▁ab b
▁may an
og n
▁red uce
▁gre atest
▁min i
▁z ion
▁z omb
▁ap pl
app ed
▁watch ed
▁me x
▁mass ive
▁ind iv
▁ind eed
aw n
▁char ity
▁char ge
▁expl oration
▁miss ion
▁ty pe
▁conf erence
▁rec omm
▁resp ect
▁i i
▁for ced
▁call ing
▁head ed
▁cre ated
▁nat ure
▁ed t
▁ac re
▁tri p
▁tri al
▁met s
▁ve t
▁some body
▁malay sian
▁face book
▁ste aling
atch et
▁pr int
▁it ûas
▁put in
▁ent ertain
▁mod el
▁aff ect
▁pat ient
▁ut ter
▁id p
▁par ley
▁inv oice
▁exper ience
erm o
▁reg ister
▁cycl ist
ib ility
oooo oo
▁to ilet
▁har ry
▁hun g
▁fre ed
▁after noon
▁mag n
▁town ship
▁dro p
▁dro pped
▁er up
▁lear ning
▁ass oc
▁bey hive
▁austral ian
▁sad ly
▁conc ern
▁conc ert
▁conc erned
▁bring ing
▁sim ple
▁int ens
▁cd c
▁contin ues
▁drink ing
▁adv isory
▁port land
▁prev ious
ron ic
▁tro pical
▁will iam
▁arri ved
▁avoid ing
▁mediterr an
pol it
fro m
▁throw ing
pro of
▁wm ata
▁repl ace
▁kur d
▁guard ian
▁ital ian
bie ber
▁base ball
▁mumb ai
▁dub step
▁lift ed
▁caps izes
▁steph en
▁mort al
▁doll ar
▁apparent ly
▁justin bieber
▁cust om
▁mach ine
▁alas ka
▁satur day
▁includ ing
▁newy ork
▁exec ut
▁enem y
resc ue
▁auss ie
▁nurs ing
▁libr ary
a ur
b ow
b et
c ont
d is
d ra
d om
e al
e ver
e em
f g
f m
f ore
g od
g ain
h i
h o
h s
h ow
h ouse
h ott
i as
i et
i ag
j p
j ar
j ob
k in
k han
l u
l ight
l ike
m or
m el
m atic
n ow
o h
o sh
o ok
p ri
r at
r un
s el
s oon
t r
t ri
u f
u ct
v a
v in
w r
w in
w ill
y i
y t
y er
ì union
▁ ip
▁ åê
▁ odd
in f
in ation
in ity
▁s ize
▁s oph
er y
re al
re ci
▁c it
▁c ream
▁c ute
▁c bs
an o
an ia
on line
▁b ol
▁b oun
▁b are
▁b uck
▁b ene
▁t ag
▁t oll
▁t ub
▁t ube
▁t ool
▁t ough
▁t erm
▁t aste
▁p b
▁p os
▁m er
▁m ut
▁m ail
▁m our
▁m aster
▁m other
▁m ater
▁m tv
▁f a
▁f d
▁f ur
▁f ish
▁f ield
▁d ou
▁d ur
▁d ann
al in
▁l y
or p
or ie
▁h ow
▁h ip
▁h ous
▁h yp
▁a st
▁a ch
▁a ka
ic emoon
it a
it ive
▁n j
▁n ar
▁n ur
▁n ine
il ot
▁g ate
▁g ard
▁g ain
▁g ang
▁g ree
▁g iven
▁g aza
ro ve
ol i
ol k
ol ate
▁re sh
el s
el lo
ay n
ur ing
▁st at
▁st yle
▁st aff
▁st uart
un a
un ting
ig ger
▁r ider
▁r ìunion
us er
▁v er
▁v uit
im ent
im um
▁in te
es us
▁k h
▁k at
▁k am
▁k as
▁th er
▁th ats
ag ram
ag ement
ast y
op s
▁ch in
▁ch ris
▁ch air
th is
ap s
▁y a
▁y az
▁j enn
▁j uly
se qu
▁sh ell
▁se an
ul ous
em pt
▁ex ist
▁ex tern
▁an x
qu is
▁tra d
▁con gress
▁ar ch
▁bl k
▁bl ame
▁bl vd
▁al ert
▁al bert
▁le ague
▁pl ug
are t
▁tr igger
▁ro me
▁ro ll
▁ro yal
▁pro sec
▁ra re
end s
▁man ager
ud ed
ure n
▁ev il
▁sc ar
▁sc ary
▁be c
az z
▁un iver
▁fo cus
▁he aven
▁cra mer
▁cl ick
▁cl utch
▁bur st
▁cal orie
▁att ention
▁en ergy
ang ed
▁br ut
bl ack
port s
▁mo re
▁te le
▁every day
▁sm ell
▁dest iny
▁dr um
▁jo y
▁jo sh
▁gre y
ft en
▁me g
▁work ed
▁ele phant
ition al
▁need ed
▁rem ain
▁rem ains
ress ion
▁ok wx
▁sch edu
▁app reci
▁run way
▁surviv al
▁miss ed
▁x box
▁fr ank
▁plan et
▁ob ject
▁elect ronic
▁sl ip
▁sl ightly
▁rec ogn
▁real ise
▁ir on
he alth
▁che ese
▁mus e
▁fin n
▁end ed
▁str uck
▁cur ved
▁wr ite
▁start ing
▁the atre
▁with in
▁pick ed
▁som alia
▁sound cloud
▁dra gon
▁dra matic
▁sever al
▁upd ated
▁fight er
ob ody
▁pr im
▁pr ime
rol ight
▁power ful
▁power lines
▁aw are
▁list ening
▁can aan
▁mem e
▁art ist
▁pat rick
▁sal em
▁christ mas
▁you ve
▁person al
▁do ctor
▁reg ard
▁rel ative
▁iran ian
sa fe
▁link ury
▁china ûas
▁sy d
▁sy ria
▁sen ator
▁def in
▁def end
▁just ice
▁soc iety
▁pal m
▁pass ing
▁sun set
▁ask ing
▁threat ens
▁ic emoon
▁ic esû
▁mag ic
▁low ly
ten ance
▁ant i
▁begin ning
▁san ction
▁mic ro
▁mic rolight
▁animal rescue
▁q uran
▁ann ual
▁freak iest
▁neighb or
▁fem ale
▁val ley
▁canc el
▁mine craft
oth es
▁tro op
▁exch ange
▁polit ical
▁activ ity
▁ug ly
▁fant astic
▁opp os
▁crack down
▁broad way
▁ter rible
▁pri v
▁dj icemoon
▁bless ing
▁aud io
▁bath room
▁treat ment
shot s
don ald
▁sar ah
▁arab ia
▁youû ave
▁pap er
▁recover y
▁trap music
▁discover ed
▁env iron
▁surpris e
▁photogra phy
▁sid eline
▁jour nal
▁alle ged
▁fest ival
▁jama ica
▁shel ter
▁incred ible
wf net
▁did nt
▁rap id
▁kidn apped
▁autom atic
▁tong ue
▁mht wfnet
▁chann el
▁exact ly
▁zomb ie
▁mex ico
▁indiv idual
▁erup tion
hott est
▁mater ial
▁vuit ton
▁yaz id
▁univer se
▁schedu le
▁canaan ite
▁environ ment
a os
a way
a ign
b ig
b ly
b ian
c as
c es
c ity
d a
d j
d r
d am
d em
e ch
f re
g as
h od
h es
h ome
h our
h ai
h ib
i ra
i ated
j r
l ar
l ic
m ur
m andy
n ot
n ight
n ade
p c
p at
p al
p age
r t
r in
s g
s ion
s and
s ummer
u ing
u ana
w ed
w ing
w olf
y g
y ro
y ard
z ing
in el
in ner
▁s b
▁s ic
▁s atch
▁s anta
er d
er ing
▁c t
▁c y
▁c ig
▁c orn
▁c ous
▁c red
▁c uz
on a
▁b il
▁b ug
▁b ake
▁b ull
▁b tw
▁t f
▁t u
▁t il
▁t ut
▁t amp
at ely
▁p a
▁p t
▁p en
▁p orn
▁p atch
▁p ts
▁p ipe
▁p upp
▁m u
▁m art
▁m cc
▁m ma
▁m erc
▁m ental
ar i
▁f ac
▁f ake
▁f arm
▁d iv
▁d iving
▁d vd
▁d uty
▁l g
▁l on
▁l ay
▁l ack
▁l own
▁l ess
▁l ower
▁l orry
▁l ung
▁w b
▁w o
▁w y
▁w id
▁w aste
en ly
en cy
▁h d
▁h ack
▁h ann
▁h ang
▁h ole
▁a uction
le m
it z
it es
it ation
it ect
it ies
▁e as
▁e ight
▁e aster
▁n b
▁n p
▁n ose
▁n amed
▁g a
▁g il
▁g ig
▁g olf
▁g ained
▁g host
▁g rief
ro d
ro g
is ii
▁re ar
ra il
om en
el and
ac ing
ot o
ot er
ur ned
▁st un
▁st ir
▁st ation
▁st uck
▁de ar
▁de vel
ig ned
ve iled
▁r h
▁r i
▁r an
▁r ally
▁r ick
us ion
ow ing
ch ar
▁k ad
▁k yle
▁k isii
▁th ere
ag i
ag ov
▁o v
▁li p
▁li ber
ver se
ht ag
▁ch est
▁ch art
▁j u
▁j er
▁j esus
lo ving
ate ful
se h
se y
▁sh ake
▁sh out
▁sh ep
▁sh ipping
ul a
ul ate
um per
ill er
ill ermo
▁am ster
sh op
est rian
est rike
▁new est
▁lo an
qu est
▁tra ff
one ws
▁con vers
▁fire d
▁bl amed
▁su d
▁al co
▁pl ain
▁pl ague
ip ed
▁sp ider
▁go og
▁tr ick
▁tr uly
ail ed
▁ro hing
her d
pl ing
▁pro p
▁ra id
▁ra ge
▁ra yn
ph ic
end ent
▁man agement
▁we ight
▁be û
▁pe pper
▁un veiled
ick ed
▁fo xt
▁pre fer
▁bo s
▁bo ot
▁bo ston
cc i
cc ess
uck s
▁cl ient
▁cl inton
▁cl othes
ath e
▁war ns
▁wh eav
▁wh ats
▁wh eel
▁bu ilt
▁cal um
▁att empt
▁kn own
bl ue
iz ing
son ian
port ed
▁mo od
ee p
▁te acher
▁home less
amp ton
▁sm ile
▁ab use
og ram
▁look ed
▁jo se
▁gre nade
▁min ing
▁z ayn
▁gu illermo
ern o
▁des p
▁des er
▁ad am
▁let ter
▁let ûas
▁ind ep
itt ing
▁ele v
▁ele ction
▁gr ant
▁up gra
land s
▁char ging
▁char les
ict ion
▁rem inds
ec ially
▁offic ially
▁read û
▁sch eme
▁ref er
▁ref lect
▁pan ther
▁at m
▁ins p
▁ins ane
▁mil k
▁murder ed
▁murder ous
▁x d
▁med ical
▁conf lict
be an
▁sl ide
ore s
▁ke pt
▁i ii
▁hot el
▁real ity
of th
▁set tle
▁deb t
▁comp et
▁sin jar
▁state ment
▁ed ition
▁ed itor
▁cross ed
▁gun fire
so ft
▁ve get
▁mon ogram
▁girl friend
▁some how
▁gt a
yc at
yc le
▁fail ed
▁ste el
▁stand user
▁coun ter
▁south ern
▁bel ong
▁mad inah
▁hol y
▁hol iday
▁aw ful
▁can ûat
▁sub ject
▁inst all
▁tem por
▁rel ax
▁cop ilot
▁cop ycat
▁my ster
▁remember ing
ib ly
▁dep uty
fl ow
▁add ress
▁mor gan
▁abc news
hh hh
▁sen ior
▁def ense
▁ye a
▁ext ra
▁ext remely
▁pres ent
▁cle ared
ors es
▁hist or
▁over t
▁blue jay
▁try na
bur n
▁park er
▁capt ain
▁lar ger
▁ass ist
▁no ah
ins ur
▁pur ple
▁stud y
▁jon es
▁comple x
▁sol ar
▁ny times
▁grow ing
▁sex ual
▁cover ed
▁gener ation
ham mad
▁dan iel
▁ris ing
ific ation
net work
▁ol ymp
▁flo yd
▁cond em
▁adv ance
▁but ton
▁main tenance
▁det ail
▁equ al
▁tor ch
▁tor onto
▁pil ing
▁val ue
▁hon or
▁jam es
ivers ity
▁tow el
▁auth ority
▁arri ve
▁ce le
▁chicago area
▁dist ance
▁gott en
▁bless ed
▁max imum
▁desc rib
▁desc ription
▁iû am
par ractor
▁orig in
▁motorcy cle
▁yah o
▁disapp ear
▁resident ial
▁ital y
▁ig ers
▁spark ed
▁adm its
▁euro pe
▁prophet mu
▁cro at
▁batter y
▁dor ret
▁esp ecially
rad io
▁shar p
▁demon st
▁ult imate
▁mike parractor
▁lang u
▁aver ted
▁jew ish
▁buff alo
▁colle ction
▁by û
▁bott om
▁tenn esse
▁trail er
▁connect or
▁unlock ed
▁meat loving
▁fergus on
▁crow d
▁challen ge
▁spin ning
▁disrup ts
▁rol ling
bh u
▁iph one
▁poc ket
▁vin yl
▁vul ner
▁sept ember
▁anchor age
▁commer cial
▁surround ed
▁zion ist
▁recomm end
▁entertain ment
▁hung ry
▁freed om
▁assoc iated
▁intens ity
polit ics
▁execut ive
▁tub estrike
▁mtv hottest
▁nur se
▁gard en
▁inte gr
▁chin ese
▁extern al
▁trad itional
▁trigger ed
▁prosec uted
▁finn ish
▁sic ily
▁satch el
▁cous in
▁pts d
▁lown des
▁less on
▁shep herd
▁amster dam
▁convers ation
▁alco hol
▁rohing ya
▁foxt rot
▁wheav enly
▁myster y
▁bluejay s
▁prophetmu hammad
1 ⁄
a ire
b on
b at
b en
b el
b id
b ad
b us
b lo
b ott
b rown
c ann
c ket
c ement
d ed
d ot
e ing
f at
f ate
f ounder
g ar
g un
g ame
g reen
h ot
h ell
h az
h orn
h app
i û
i op
j c
k l
k y
k le
l t
l on
l ow
l ish
l aw
l ayer
m g
m o
m at
m en
m ay
m ake
m iss
n or
n ation
n ie
n ûat
o j
o ffic
p an
p art
p orn
p ress
p ool
p sy
r c
r il
s d
s x
s en
s qu
s ale
s ûa
s enal
t o
t alk
u a
u ra
u et
v r
v ad
w ith
y ptic
z s
▁ ì
▁ ire
▁ error
▁ ode
in ion
▁s ail
▁s ym
▁s orrow
er al
er og
er iff
▁c b
▁c od
▁c ad
▁c and
▁c ia
▁c ub
▁c ec
▁c ert
an ut
an cy
▁b a
▁b on
▁b id
▁b ok
▁b und
▁b rian
▁b ird
▁b rief
▁b jp
▁t l
▁t an
▁t ide
▁t um
▁t roy
▁t une
▁t rem
▁t bt
▁t iny
at ory
▁p p
▁p in
▁p it
▁p is
▁p ul
▁p ant
▁p ush
▁p ers
▁p enn
▁p izz
▁p enal
▁m k
▁m m
▁m n
▁m it
▁m ol
▁m and
▁m um
▁m all
▁m sf
ar a
▁f aced
▁f wy
▁d k
▁d l
▁d all
▁d are
▁d uck
▁d ress
▁d ope
▁d utch
ing s
ing ham
al i
al id
al ie
al sp
st ain
st rike
▁l en
▁l am
▁l ul
▁l unch
or a
or c
or ing
or ia
or ious
or ies
▁w s
▁w as
▁w et
▁w itness
▁w ither
▁w olf
▁w alm
▁w rap
▁h r
▁h al
▁h orn
▁h mm
▁h uh
▁h atchet
▁a y
ic es
ic ian
ic ulous
le e
le g
le ton
it o
it ely
ou ra
▁e f
▁e h
▁e th
▁e gy
▁e gg
▁n ail
▁n ike
▁n uke
▁n obody
▁g ab
▁g ym
▁g ift
▁g ps
ro it
is l
ol t
▁re id
▁re ce
▁re ward
▁re ject
▁re no
ra h
ra id
ra ine
ra khan
om s
el d
am es
am ity
id al
id dle
ac le
ac ity
ot ed
ur ricane
ke e
ke s
▁st reak
▁de ck
ig er
ig ation
as k
ad ed
ent ed
▁r ating
et te
▁v iv
im ated
ch an
ch ase
▁in ev
▁ne c
▁ne ma
▁k u
▁th ed
▁th is
▁th us
▁th ru
▁th isis
ir k
ag ing
▁o ops
▁o ften
ly phic
▁li z
ver t
ver ty
▁ch er
▁ch el
▁ch op
▁ch ick
▁ch ase
▁ch aos
ap y
ap ed
ap ing
▁y ay
▁j a
▁j ake
▁j ump
▁sh anta
▁se ction
em an
sh ole
▁new ly
▁lo g
▁lo oting
▁ex ample
▁an al
▁an kle
qu ar
ie go
▁con sequ
▁fire man
▁ar g
▁ar iz
▁ar senal
▁bl ake
▁bl ind
▁su stain
▁al p
▁al ly
▁al tern
▁al right
ab ly
ab ility
▁le af
▁wor ried
▁pl s
▁pl ot
▁pl ate
ip s
▁sp eed
ning s
att ack
att oo
oll and
if er
if orm
▁ro le
ell ing
ok y
▁ra pe
ian g
ust ing
▁man sion
▁man seh
ive s
▁we e
▁we ed
▁we bs
▁co founder
iv ity
▁ev idence
▁sc ot
▁sc ient
▁be am
▁pe anut
az i
▁û politics
▁un safe
▁un iversity
▁un iform
▁fo ol
▁pre view
▁he al
ess ion
ess ary
ah a
ah urricane
cy cl
ary m
os en
▁hi erog
▁qu ality
▁war m
▁war ned
▁wh ale
▁wh ether
▁cal amity
▁att end
▁br ide
▁br ight
▁sur f
oc ent
▁us ual
▁us agov
▁ca ve
▁cr it
▁cr icket
▁mo ck
▁im m
▁te a
▁every ones
▁mar ine
▁tw ia
▁sm ash
▁sm ith
▁sm oking
▁ser ver
▁ser ial
▁cont em
▁cont act
▁cont rib
▁red uced
uc ation
▁dem and
▁gre g
▁exp lo
▁ear ner
▁po v
▁po verty
▁me asure
▁let hal
ric t
ric an
ach i
▁em ail
ord an
▁gr ateful
arm ed
arm ing
▁north west
co re
▁leg al
▁leg it
▁per man
▁di et
▁di ffic
▁play off
▁fuck ed
▁ok an
▁hor rif
▁or ch
▁or ange
▁serv ed
▁af raid
▁app le
▁run ner
▁act ive
▁act ual
▁med ic
▁injury i
▁report ing
▁sl am
▁rec ipe
▁i am
▁as ap
▁as ian
▁as shole
▁real ized
▁black berry
▁quar ter
uch a
▁ir ish
omic s
▁cas per
▁u pper
▁city of
anc er
anc ed
ott e
ott en
▁any way
▁el l
ex pl
▁sk ill
▁part ic
▁part ner
▁str ange
▁str anded
▁wr iter
▁wr itten
▁start up
▁ed ucation
▁ûï the
▁high est
▁hur rican
▁tri b
▁met hod
▁cap ital
▁hope fully
åê m
▁investig ation
▁bar ack
▁bar gain
▁op ened
▁op inion
▁child hood
▁ton y
▁dra wn
que en
▁ep ile
▁summer fate
te ch
▁coun sel
▁pr ince
▁hum id
▁put ting
▁intern al
▁viol ence
ys is
▁bra ke
▁mem orial
▁trans f
▁whole sale
▁breaking news
▁explosion proof
uth or
▁gra ce
▁gra de
▁inst agram
▁id k
▁bang lad
▁inv alid
▁star ring
▁exper iment
▁rad ar
▁win ter
▁ag gress
com m
ov o
ov al
▁collision no
▁camp us
▁camp aign
▁mid o
▁dep th
▁dec ided
▁har per
▁ret weet
▁vict ory
▁music ian
we b
we ather
▁sen ate
▁tell ing
▁sil ent
▁dire ct
▁threat ening
▁vir alsp
▁dro ve
▁wonder ing
▁wonder ful
▁hug hes
▁block ing
▁pain t
▁mess enger
▁america ûas
▁sim ulate
▁rest ore
▁rest aur
▁class ic
▁sol ution
ons or
▁occ asion
▁prov idence
▁saf er
▁sing ing
▁mich igan
▁phil ly
▁allow ed
▁so ft
▁la uren
▁aut o
▁est ate
▁est imated
▁rich ard
▁track ing
▁social news
▁fle w
▁det ect
▁det roit
▁å è
▁comb ined
▁young hero
▁coast al
▁emotion ally
▁bed room
▁exc ell
▁reported ly
▁palest ine
▁sent inel
▁sitt we
olut ion
ha ust
▁will ing
▁polit ics
▁activ ated
▁gtgt gt
sm ith
▁ug h
▁pull ed
▁fal con
ogra phy
▁perf orm
▁respond s
▁protect or
iat ric
pol i
rick tri
▁ter rif
▁rail way
▁tit an
▁tit le
▁tax i
▁among st
▁los ing
bor o
▁incl ude
▁kick ed
▁yo be
▁prof ile
▁mary land
▁yah oo
▁spe aking
▁disapp oint
▁strate gic
burg h
ww w
▁ml b
▁nav ed
▁rid iculous
▁thr iller
hear t
▁bow l
▁dar ude
▁german y
▁jul ie
▁suffer ing
▁predict ed
▁surpris ed
▁swim ming
▁incre ased
▁clean up
▁jackson ville
do or
weet s
▁clear ly
▁fly ing
▁laug h
▁laug hing
▁nas ahurricane
▁jud ge
▁electric al
▁temper ed
▁consider ing
walk er
▁batt ling
▁rand om
▁enc oura
▁charl ie
▁corre ction
▁toward s
▁multip le
▁multip layer
wol ves
▁trol ley
▁pill ow
▁pip eline
▁fif th
▁wear ing
▁would ve
▁has htag
▁huff man
▁stab bing
▁inn ocent
▁ker ricktri
▁of û
▁rom ance
▁phys ical
▁democ racy
▁respons ible
▁forb es
▁agre ed
▁reveal ed
▁sum m
▁ped estrian
▁pac ific
▁lmfa o
▁norm al
ayl or
▁span ish
▁becom es
▁magn um
▁william s
▁soph ie
▁boun ty
▁mour ning
▁dou bt
▁hous ing
▁gree ce
▁stat us
▁ther apy
▁arch itect
▁albert a
▁bec ame
▁recogn ize
▁muse um
▁syd ney
▁defin itely
▁micro soft
▁rapid ly
pat ience
▁corn er
▁tut orial
▁pupp y
▁lg bt
▁lon ely
▁eas ily
▁easter n
▁grief ûa
▁devel op
▁kad una
▁traff ord
▁sud den
▁goog le
▁elev ated
▁panther attack
▁tempor ary
insur ance
▁olymp ic
▁langu age
▁tennesse e
1⁄ 4
▁ode on
▁penal ty
▁dall as
▁walm art
▁egy pt
▁gab on
▁inev it
▁consequ ence
▁manseh ra
▁webs ite
▁scient ist
▁hierog lyphic
▁smith sonian
▁counsel or
▁banglad esh
▁viralsp ell
▁restaur ant
▁younghero esid
▁strategic patience
▁kerricktri al
a ine
b in
b ed
b ate
b ear
b est
b ake
b ine
b age
b orn
b iz
b ach
b ased
b gt
c g
c ow
c ap
c ase
c oc
d ar
d aily
e h
e ared
f p
f r
f am
f und
f act
f ood
f ox
g z
g il
g es
g ged
g ood
g ement
g usting
h om
h ill
h ann
h aps
i ar
i od
i os
i ber
i be
i enc
i racy
j w
j et
j ab
k an
k at
l ol
l ab
l ong
m ir
m ill
m ine
m ade
m ne
m ark
m bly
n w
n on
n at
o y
o z
o il
o is
o ver
p n
p ack
p her
p os
p ict
p ark
r ig
r im
r idge
s im
s by
s love
t or
t id
u u
u ise
v c
v i
v ity
v ine
v ideo
w p
w is
w are
w ise
w ister
w ich
w ater
w arming
x yy
y r
y oung
z u
ì n
ì 1⁄4
û ó
▁ ou
▁ if
▁ ath
▁ ident
▁ ont
▁ vest
in i
in m
in ston
in burgh
▁s g
▁s x
▁s û
▁s ant
▁s oo
er j
er v
re c
▁c ot
▁c ell
▁c ens
▁c ord
▁c news
▁c ode
▁c uff
▁c unt
an et
an ston
an sea
on k
▁b g
▁b h
▁b p
▁b er
▁b ff
▁b orn
▁b ite
▁b ash
▁b other
▁b yp
▁b ik
▁b order
ed en
ed ig
▁t b
▁t t
▁t ak
▁t fl
▁t attoo
at in
▁p d
▁p s
▁p ad
▁p ound
▁p ace
▁p ond
▁p ix
▁p ope
▁p ier
▁m ent
▁m ate
▁m ull
▁m itt
▁m ama
ar c
ar o
ar ing
ar son
ar io
▁f b
▁f i
▁f ig
▁f ad
▁f ate
▁f art
▁f aster
▁f red
▁f ile
▁f ishing
▁f erry
▁f ett
▁f bi
▁d q
▁d w
▁d at
▁d um
▁d ant
▁d ip
▁d oug
▁d ual
▁d ock
▁d ating
▁d ubl
▁d umb
▁d rew
▁d irt
▁d inner
ing û
al le
st al
st ic
st op
st ate
st own
st yle
▁l v
▁l is
▁l ind
▁l yn
▁l uke
▁l gl
▁w i
▁w al
▁w it
▁w ht
▁w ast
▁w att
▁w icked
en ry
▁h t
▁h ou
▁h id
▁h ig
▁h ab
▁h ated
▁h ai
▁h oe
▁h oney
▁h itting
▁h olland
▁a a
▁a z
▁a ce
▁a ber
ic ed
ic ated
le te
it ish
it ty
it ute
it lin
ou ver
ou ma
▁e e
▁e q
▁e s
▁e ating
▁n l
▁n ic
▁n om
▁n ug
▁n os
▁n ost
▁n ude
▁n ik
▁n fl
▁n iece
▁n sf
▁n asty
il th
il sh
il ty
il oot
▁g g
▁g h
▁g i
▁g p
▁g ad
▁g ear
▁g all
ro s
ro ck
ro lo
is k
ol ence
ol ina
▁re ap
▁re ven
▁re xyy
ra st
ra ment
ra ction
om p
el in
el le
el ion
am eric
ion ship
▁st er
▁st ew
▁st ere
▁st yl
un ately
ig e
ig ence
od es
ve y
ent ure
▁r v
▁r ing
▁r ide
▁r um
▁r ush
▁r ank
▁r ange
▁r yan
us es
et ic
et ime
et he
et life
▁v ar
▁v en
▁v ip
▁v ick
▁v amp
▁v int
▁v anc
▁v ision
▁v ocal
▁v erm
▁v ital
▁v oter
im en
ch es
ch lic
▁in k
▁in it
▁in ning
▁ne ither
▁k y
▁k ot
▁k ab
▁k ash
▁k ore
▁k enn
▁k ca
▁k inder
▁k arym
▁th or
▁th es
▁th ee
▁th irst
▁th ird
ag es
ag uing
▁o ak
▁o pt
▁o vern
▁ch ew
▁ch ain
▁ch oc
▁ch oo
▁ch oking
▁ch anged
th ew
▁y em
▁y oun
▁y ug
▁j r
▁j un
▁j as
▁j ess
▁j ax
▁j ason
▁j azz
▁j ordan
lo yd
se x
se mbly
▁sh ang
▁sh ared
▁sh eer
ut o
ut ton
▁se qu
ri or
ri ot
ul s
um n
em s
em ar
ff ur
oun ter
ant ic
ill ion
▁am ir
sh it
sh ire
est ic
est yle
est pict
▁lo go
▁lo gic
ist a
ist le
orm an
ak u
▁ex erc
▁an ge
▁an na
▁an ger
ie g
▁con v
▁con ser
▁ar gent
▁bl ks
▁bl uet
▁su v
▁su pre
▁su ccess
▁al ien
ab ad
▁le o
▁le z
▁le ak
▁pl aguing
ip per
ip itation
▁sp ut
▁sp end
▁sp ain
▁sp ending
▁sp read
▁sp rin
att an
▁dis p
oll ow
▁ro cket
ort ion
pl edig
av is
ell ed
▁pro be
▁ra ce
▁ra pper
▁ra mag
ind ia
ph is
ph one
ian ce
ust y
ust ration
end ency
ub b
ud d
ud s
▁co oper
iv an
ry l
▁sc are
▁sc ore
▁be er
▁be ck
▁be fore
pp ing
pp ort
▁pe ep
▁res ource
▁û ext
▁un aw
▁un kn
▁un happ
art s
▁fo ster
own s
▁pre gn
▁he ight
ah u
▁bo om
▁bo red
cc a
uck dc
▁fl ow
▁fl ip
▁fl ower
▁cl ay
▁cl ue
▁cl ash
▁cl imb
▁qu e
ath y
▁war n
▁war fight
▁wh it
▁wh ao
▁kn ox
ane ous
gen er
▁en s
▁en jo
ang lu
▁br on
▁br and
ace y
▁fam ous
▁sur ge
▁sur face
▁car l
▁us h
▁ca ution
▁ca itlin
iz en
▁cr ater
ond ay
▁flood ed
ee ee
▁im med
▁fe eding
▁mar vel
▁mar ij
▁mar ried
▁tw in
▁attack ing
amp w
▁sm art
▁acc used
▁acc uses
▁ab us
▁ab ility
▁ab ortion
▁red eem
▁red light
▁jo el
▁back yard
▁world net
act ive
▁gre et
▁min or
▁min ority
▁z ar
▁z im
▁z ouma
▁ear ring
▁der by
app ing
▁gu ilty
ern an
▁me al
▁me ant
▁me ga
▁me chan
▁out door
▁sw e
▁sw ing
▁sw ell
▁sw eat
▁sw ansea
▁let ting
▁want ing
▁ind ones
ni k
ric h
ric ted
ach ing
▁derail s
▁em ily
▁ele m
▁gr ande
arm a
▁del iver
▁leg end
ile s
▁sou p
▁per haps
▁di ver
▁inter se
▁land fall
▁light ening
▁char ger
▁rem o
▁rem inder
ren ce
ren der
▁expl ains
▁rain ing
▁ref use
ood le
▁ins pect
▁tur bine
▁x p
▁plan ning
vel and
be z
be ast
▁sl anglu
▁rec ent
▁rec ently
▁ke ith
▁host ing
▁i k
▁i w
roph y
▁jap ìn
▁as ia
▁as leep
▁real ize
▁real donald
▁for ward
▁long est
he le
▁cas ual
unk o
▁head ing
▁head phone
▁u h
anc is
▁mus cle
▁fall en
▁any body
air s
sc ious
▁photo shop
▁dri ven
▁av en
▁sin c
▁col umb
▁not e
▁not ification
▁ed en
▁ed inburgh
▁eng lish
▁post ed
▁ûï a
▁ûï we
▁the ory
con n
con nect
▁ac id
▁ac qu
▁ac cept
▁inf ect
▁tri ple
▁tri pledig
▁cent iped
▁cap acity
▁ve ga
▁pra bhu
▁mon key
▁mon itor
▁mon soon
▁eb ike
▁bet ray
▁op us
▁dra g
▁game play
elf are
▁wa imate
▁ste am
▁comm it
▁comm itt
▁south east
▁south ampton
ob ot
aa a
▁ur gent
▁ur ibe
▁check ed
gt gt
▁it s
▁it em
▁sand iego
▁battle ship
▁mad ison
▁list ed
▁sign ific
▁mod i
▁spec if
▁spec ific
▁spec imen
▁rock in
▁bra d
▁bra ve
▁bra king
▁aff il
▁oh h
▁trans it
▁self ie
▁self ies
▁pat tern
▁pat riot
br id
▁gra y
▁gra zed
▁market ing
▁id c
▁id iot
▁id fire
▁par amed
▁friend ship
▁follow s
ram etlife
▁star ter
▁christ ie
▁exper ienc
▁reg ular
▁rel ation
▁win ston
▁ag ent
ote ch
▁imp oss
▁imp ressed
▁imp rove
▁remember ed
ib an
▁tren d
▁far oe
▁far rakhan
▁dep endency
▁apocal yptic
au ra
ts chlic
▁send ing
▁dec ide
▁super vis
▁to e
▁to x
▁mot h
▁mot iv
▁har am
▁har bor
▁ret urned
▁hun ger
▁belie f
▁foot age
jo hn
wh ite
▁om fg
▁sil ence
▁pass ed
▁under way
▁under ground
pe ace
▁cle v
▁cle veland
▁dire ctor
lin son
▁walk er
▁move ment
▁mark ed
▁mean ing
▁ic ym
▁wash ed
▁hah ahah
▁stri ker
▁try out
▁peace ful
de bate
▁park ing
▁capt ured
sw inston
▁pain ting
▁lar gest
▁level ed
uz z
▁sad dle
▁clos ure
▁no ise
▁offensive ûa
▁bring s
mm m
▁sim p
its news
▁rest ricted
▁front line
▁fact or
▁fact ory
▁occ up
ward s
▁cry stal
▁mic hele
▁je an
▁je ff
▁worst summer
▁major ity
▁ben j
▁flo ated
▁king dom
▁la unch
▁contin ued
▁interest ed
▁bill ion
▁number ed
▁david v
▁comb at
▁york er
▁property cas
gra y
gra ph
▁exc ited
▁exc use
▁event ually
▁result ed
▁carry i
▁niger ia
▁box er
▁john son
▁special ist
▁camer on
uke s
▁auth or
▁feat ure
▁activ ates
▁target ing
su pport
▁ug anda
▁hill ary
▁dev ice
▁opp ression
▁expect ing
▁invol ved
▁michael sos
des k
▁bud dy
▁pri or
▁pri ority
▁mi ami
▁vote jk
▁prod uced
▁prod uct
▁afric an
aff air
▁lim it
▁gm t
iph op
▁iû ave
friend s
sk y
▁bic ycle
▁tun ed
▁aud ience
ular ly
▁local arson
▁prof it
▁rocky fire
▁understand ing
▁ha unting
▁repl acing
▁kur tschlic
▁const antly
▁spe aker
▁screen shots
▁forg ot
▁forg otten
▁six th
res istant
▁nick i
▁reach ing
▁arab ian
▁emp ty
▁enter ed
met ro
▁gust y
rain storm
▁plant ed
▁discover y
▁prem ier
▁incre ase
▁certain ly
▁mist ake
▁aver age
▁nas a
▁net work
▁vac ant
▁loc ke
▁loc ation
▁alle g
▁compl iant
▁enjoy ed
▁atl anta
▁skin ny
▁bullet in
▁cn bc
▁cir c
▁cab in
▁cup cake
▁bound ary
▁dom estic
▁rev olution
imb estpict
▁kar achi
▁unlock ing
▁enc ounter
▁fergus ons
▁psych iatric
fo rest
wol ffur
▁ot rametlife
▁bi ological
▁wis enews
▁huff post
▁neg ative
▁yell ow
▁jim my
▁disc uss
▁respons ibility
▁announ cement
▁reveal s
▁diamond kes
▁tac o
▁dt n
alert s
▁les bian
▁lone wolffur
▁wire less
▁ki ernan
▁ken ya
▁rac ist
▁uns uckdc
▁prec ipitation
▁abb swinston
▁utter ly
▁previous ly
▁kurd ish
bow affair
tr ump
wr iter
▁cit izen
▁buck le
▁bene fit
▁pb ban
▁pos itive
▁mer cy
▁fa ith
▁dann y
▁ly ric
aret te
▁brut ally
▁tele graph
▁appreci ate
▁prim ary
▁oppos ite
▁priv ate
▁yazid is
▁cy ber
▁cig arette
▁cred it
▁tu esday
▁tamp a
▁fac ility
▁liber ty
▁rayn bowaffair
▁indep endent
▁atm osp
▁settle ment
▁histor ic
▁assist ance
▁growing up
▁floyd s
▁cele br
▁yaho onews
▁vulner able
▁integr ity
cann on
▁ire land
▁bok o
▁pizz a
▁mit igation
▁lul gz
▁chel sea
▁newly wed
▁anal ysis
▁altern ative
▁crit ical
▁contem pl
▁measure ment
▁okan agan
▁horrif ic
▁trib une
▁epile psy
▁humid ity
comm un
▁detect ado
▁excell ent
bake off
▁cot ton
▁bik er
▁mitt û
▁fett iloot
▁dubl in
▁hou ston
▁nug get
▁gad get
rament o
▁stere o
▁styl ish
▁vint age
▁vanc ouver
▁karym sky
▁overn ight
▁choc olate
▁choo se
▁yem en
▁shang hai
▁ange les
▁bluet ooth
▁supre me
▁sprin ter
▁before itsnews
▁ûext remely
▁pregn ant
▁warfight ing
▁enjo ying
▁marij uana
▁worldnet daily
▁slanglu cci
▁realdonald trump
▁tripledig it
▁centiped e
▁betray ed
▁paramed ic
▁imposs ible
▁supervis or
▁worstsummer job
▁votejk tid
▁localarson ist
▁kurtschlic hter
imbestpict s
▁diamondkes awn
▁unsuckdc metro
▁lulgz imbestpicts
▁fettiloot ch
a it
b b
b re
b and
b ak
b lood
b ry
b art
b our
b ank
b ury
b ec
b by
b bc
b aby
c u
c w
c at
c ing
c il
c op
c um
c ard
c amp
c ru
c ount
c news
c ancer
d k
d n
d u
d an
d ad
d ie
e b
e f
e z
e in
e ather
f d
f i
f s
f v
f x
f le
f ac
f ur
f ig
f ast
f ri
f est
f ort
f ect
f lood
f ish
f our
f ans
f ring
f yi
f iction
f eld
g i
g m
g th
g ate
g ue
g ah
g ang
g me
g ling
g host
h at
h el
h and
h aw
h ope
h atchet
h orses
i q
i w
i us
i ate
i all
i qu
i que
j a
j d
j i
j j
j n
j ap
j ected
j ech
k h
k os
k elly
l om
l ain
l ord
l ady
l ik
l ondon
l iest
l iber
m h
m i
m l
m s
m is
m ac
m ate
m are
m art
m ann
m ass
m ah
m os
m ont
m ike
n c
n ew
n ec
n bc
n umber
n ws
n ashville
o in
o om
o cc
o ying
p ad
p ast
p ink
p ics
q d
r us
r ue
r ance
r ans
r ina
s ing
s ense
t am
t ive
t urn
u x
u y
u an
u id
u ine
v ard
v ind
v oc
v ious
v oice
v ani
w er
w al
w ide
w ant
w ild
w ell
w reck
w ord
w he
w eek
w omen
x o
x y
x on
y en
z k
z ak
z ero
▁ il
▁ od
▁ ow
▁ um
▁ one
▁ ub
▁ orn
in ct
in son
in aw
▁s f
▁s j
▁s el
▁s us
▁s ht
▁s lo
▁s ight
▁s ake
▁s ab
▁s ort
▁s ass
▁s os
▁s ni
▁s ket
▁s ne
▁s ore
▁s ov
▁s yn
▁s ized
▁s ymp
er b
er ve
er ate
er enc
re view
re gon
▁c c
▁c j
▁c ri
▁c age
▁c ue
▁c ash
▁c ult
▁c yp
▁c rown
▁c ta
▁c andy
▁c sx
an ing
an other
an ket
an oke
on i
on ed
on st
on ic
on ge
on ym
▁b m
▁b es
▁b one
▁b ab
▁b ail
▁b ard
▁b end
▁b ew
▁b ub
▁b ern
▁b io
▁b irm
▁b elt
▁b ump
▁b ts
▁b rew
▁b unch
▁b alt
▁b esid
ed i
ed ay
ed ge
▁t a
▁t am
▁t es
▁t ie
▁t ab
▁t ort
▁t ah
▁t ee
▁t ale
▁t ied
▁t ape
▁t dp
▁t mp
▁t elly
▁t inder
▁t ooth
▁t idal
▁t aylor
▁t rophy
at l
at u
at am
at ivity
▁p j
▁p y
▁p ow
▁p ir
▁p ug
▁p att
▁p our
▁p iss
▁p air
▁m x
▁m el
▁m as
▁m ch
▁m es
▁m ir
▁m onday
▁m uzz
ar n
ar r
ar it
ar ab
ar ily
ar ison
▁f er
▁f il
▁f ab
▁f old
▁f ee
▁f orth
▁f ord
▁f ier
▁f ouse
▁f oul
▁f itness
▁f kn
▁f yi
▁f olk
▁d b
▁d d
▁d h
▁d ed
▁d al
▁d il
▁d ol
▁d un
▁d ag
▁d op
▁d ak
▁d cc
▁d und
▁d aw
▁d war
▁d ental
ing ly
al a
al lo
al ue
st v
st an
st le
st ra
st airs
▁l an
▁l ic
▁l it
▁l oll
▁l uc
▁l ith
▁l enn
▁l emon
▁l rt
▁l zk
or an
or able
▁w ra
▁w ine
▁w ann
▁w rist
▁w itter
▁w nd
▁w elfare
en a
en ced
▁h h
▁h w
▁h in
▁h er
▁h ay
▁h ide
▁h all
▁h end
▁h ub
▁h oc
▁h ond
▁h amp
▁h ush
▁h ood
▁h unk
▁h imal
▁h erman
▁h inton
▁h iphop
▁a û
▁a ub
▁a gency
▁a hh
▁a unt
▁a oms
ic an
ic en
ic it
ic ap
ic ia
ic ial
ic ious
le ck
le ak
le ge
le ction
it ement
it arian
ou x
ou is
ou stic
▁e go
▁e gged
▁n a
▁n g
▁n m
▁n an
▁n or
▁n ap
▁n ut
▁n ri
▁n ank
▁n aj
▁n ov
▁n oooo
▁n azi
il a
il ing
il ac
il der
il ton
il roy
▁g f
▁g el
▁g ot
▁g um
▁g ord
▁g rown
▁g room
▁g rove
▁g erenc
ro th
ro me
is û
is er
is al
is ure
is cover
is lands
ol ar
ol en
ol ine
ol ute
▁re ck
▁re vel
▁re cycl
ra s
ra ss
om n
om o
om ed
om ach
om ination
om linson
el son
am er
am ent
am ist
id im
ion em
ac i
ay a
ur b
ur d
▁st l
▁st o
▁st amp
▁st ren
▁st ats
▁st rict
▁st acey
▁st olen
▁st omach
▁de ed
▁de ter
▁de fe
▁de pt
ig ion
ig gin
ig ating
od i
od os
as c
as ing
ad h
ad io
ad ding
ad voc
ve t
ent y
ent ing
ent ic
▁r at
▁r it
▁r ig
▁r ul
▁r ant
▁r ice
▁r if
▁r io
▁r wy
▁r ipped
▁r world
▁r udd
ow a
et o
▁v id
▁v od
▁v ist
▁v ood
▁v ene
▁v oting
▁v lad
im in
im ir
im ore
im inist
ch ris
es c
es ar
es pre
es burg
es olate
▁ne pal
▁ne stle
▁k a
▁k l
▁k el
▁k od
▁k end
▁k rist
▁k ij
▁k erry
▁k elly
▁k itten
▁k omen
▁k alle
▁k oin
▁th u
▁th in
▁th en
▁th ug
▁th ick
▁th igh
▁th rew
ir ty
ir rel
▁o o
▁o s
▁o oo
▁o oooo
▁o sb
▁o oh
▁o regon
ire ction
▁li ved
ht s
ck m
▁ch r
▁ch at
▁ch unk
▁ch erno
▁ch osen
th en
th ough
ap er
ap al
ap es
and al
▁y ep
▁j b
▁j en
▁j us
▁j ail
▁j up
▁j une
▁j ih
lo c
lo st
ia h
ia k
ate ver
▁sh a
▁sh aw
▁sh ark
▁sh eet
▁sh aking
▁sh edding
▁sh irt
▁sh ook
▁sh eriff
▁se par
▁se wing
ri er
ri ff
ul ty
um e
um an
um ption
um met
em er
ff ect
ant age
ce y
ce ption
ce eds
sh i
sh ake
ear l
▁lo ver
▁lo os
ist s
ist ers
ak bag
ss s
ss ss
▁ex clus
▁ex hib
▁ex haust
ter ror
▁tra v
▁tra sh
one ill
ie v
ie val
▁con cl
▁con cept
▁con quest
▁ar ia
▁ar wx
▁bl ink
▁bl ah
▁bl ued
▁bl anket
▁su it
▁su ff
▁su rah
▁al though
ab s
ab led
▁le e
▁le eds
▁le isure
▁pl ummet
▁sp ur
▁sp ear
▁sp ect
▁sp enc
are ful
▁dis cus
▁dis gusting
out e
out s
▁go k
▁go at
if y
if es
if est
if ax
▁tr s
▁tr ou
▁tr ub
▁tr unk
▁ro h
▁ro man
▁ro anoke
pl ace
pl iant
pl anet
av ed
av ier
av oid
ell igence
▁pro s
▁pro ced
▁pro ceeds
ind y
ind ed
ph in
ph ia
ph ony
ph oto
ian o
ge org
▁man made
ub s
▁we y
▁we û
▁we igh
▁co s
▁co at
▁co al
▁co le
▁co rey
▁co bra
▁ev ol
▁sc ale
▁sc rew
▁sc oop
▁sc ifi
▁sa int
▁be g
▁be ast
▁com edy
az er
az zy
▁û it
▁un c
▁un cle
▁un pre
▁un avoid
ick er
▁pre d
ann ews
▁coll uded
▁he aling
▁bo re
▁bo eing
cc er
ain ing
▁fl av
▁fl aming
our ite
▁news int
up d
os is
os et
▁cl adding
▁hi ke
ous se
▁qu ake
ath ing
▁war ne
▁war craft
▁war ming
▁bur nt
▁bur ied
▁wh o
▁wh ipped
▁wh istle
ber g
▁bu ying
▁bu ffer
per ry
▁pol ic
▁pol and
ton bry
▁ph ar
▁ph ant
▁ph ill
▁att itude
▁kn ob
▁kn ife
▁off s
▁off ers
▁en rt
ang le
ang el
▁br ig
▁br ick
▁br ush
bl ed
bl ight
▁fam il
▁sur vey
▁car go
▁car ried
▁us nws
▁ca fe
son s
▁cr ude
ee z
ee ch
▁im a
▁im pl
▁im per
▁im port
▁im ported
▁crash ing
▁fe ast
▁te aching
▁mar in
▁mar ch
▁mar que
▁tw ent
amp use
▁sm ug
▁sm ooth
▁sm oky
▁acc ionem
▁inj ures
fire s
▁ab e
▁ab omb
▁ab omination
ism ampuse
▁cont ain
▁cont ained
▁cont ext
▁cont rast
ash es
og o
▁jo ke
▁jo int
▁jo hann
▁back up
▁back ground
und it
act ion
▁gre w
▁min ion
▁min aj
▁exp and
▁exp ensive
▁z en
▁z ach
▁z ipped
▁z akbag
▁ear nings
▁arm ed
▁arm ory
▁know ing
▁ap t
▁ap ch
▁ap art
▁ap olog
▁gu ate
▁gu est
▁gu ided
▁hear th
▁me gan
▁des ert
▁des igned
▁out ta
▁out flow
▁sw ear
▁sw iss
▁sw arm
▁sw eden
▁ad op
▁ad just
▁ad vert
▁ind ie
▁work out
▁work place
ni est
▁rt rr
▁em bro
▁em bar
▁em bra
▁ele ment
▁cat fish
▁dam aging
▁love my
▁gr id
arm y
▁north east
aw eather
co in
co ast
▁leg o
▁per iod
▁di es
▁di jk
bo ot
bo ost
bo ys
▁land sc
▁need le
▁light ing
▁rem ix
▁rem orse
▁rem oval
▁play th
ec om
ple ase
▁fuck in
▁destroy ing
oke s
▁good by
▁ok inaw
▁sch iph
▁rain fall
▁bro ck
▁big amist
▁ref used
▁or g
▁or al
▁pan el
▁way ne
▁at û
▁tur ning
day s
▁app oint
ix on
▁miss iss
▁last ing
▁act ing
ne g
▁x v
▁x xx
▁fr ancis
▁ty re
▁ty ler
▁med ieval
▁happ iness
ek s
▁ob s
▁ob ser
▁elect ro
be at
be es
▁sl ate
▁sl ower
▁sl ayer
ise ase
▁rec ap
ore t
▁ke e
▁ke y
by l
▁i hh
▁i book
break er
ale y
▁as sembly
▁real time
▁real mandy
▁thank u
▁sn ack
▁long s
▁water way
▁water resistant
of me
▁ru ined
▁che vy
▁head line
▁head set
▁cre ation
▁cre ativity
anc es
anc ons
▁fin ish
▁fin ishing
▁el k
▁el ite
▁el ij
▁hostage amp
sc are
sc ott
▁live onk
▁end ing
▁sk irt
▁break fast
▁god slove
▁refug e
aug ht
aug th
▁cur b
▁dri ft
▁nat ive
▁vi br
▁comp arison
▁av iation
▁col lect
▁not iced
yp e
▁ed it
▁ed ward
onder ha
▁post er
▁post ing
▁ûï rich
▁ûï hatchet
▁high ly
▁the y
▁the û
▁the game
▁hur ry
▁ac ute
▁ac oustic
▁inf lu
▁show ed
▁show case
▁tri um
▁met e
▁met ric
▁latest news
eet s
▁cap e
▁gun shot
▁gun sense
ioterror ismampuse
åê cont
▁mon ster
usp ol
gin oodle
▁bar n
▁shit ty
▁boy friend
less ly
▁night mare
▁rep res
▁rep eat
▁siren s
▁bet h
▁op s
▁free zing
▁dra ma
▁ste al
▁ste pped
▁ste ven
▁stand ing
▁weather network
sp ect
sp iracy
reat es
▁decl ared
▁decl ined
▁comm ute
▁south down
▁south bound
ob ama
▁pr one
▁pr oud
▁pr inc
▁hum aza
▁hum ancons
▁ur ban
▁gl orious
▁food scare
ii i
ose x
▁vol ga
▁mod iminist
▁viol ation
ys iren
▁bra dy
▁mem phis
▁gen uine
▁oh io
▁trans fer
▁heart less
▁on es
br on
br itish
uk a
▁ut ckm
▁gra ve
▁gra vity
▁inst ant
▁inst ruction
▁supp ose
▁save bees
▁id is
▁id ol
▁sal mon
▁sal vation
▁sal vad
▁par is
▁inv asion
▁harm kid
▁star b
▁exper ien
▁mount aine
▁reg ret
sa f
sun ited
▁cycl ing
▁displ ace
▁book boost
com ing
com pliant
ov ation
wind storm
▁fed eral
▁team h
▁camp ing
▁mos cow
▁dep loy
fl ict
fl ower
yn ine
▁send s
▁fav ourite
▁dec or
▁dec ade
▁dec ember
▁sure ly
▁sure sh
▁super hero
▁super nat
▁add ing
▁mor al
▁lab our
▁ret ro
▁ret ail
▁poss ibly
▁order ed
▁deal ing
▁vict or
▁cool er
▁belie ving
▁hard line
▁aust in
▁def ect
imal ucha
▁just û
▁ship wreck
▁ext ends
wh o
wh y
▁om ars
▁sat an
▁pal in
▁pass word
▁fre es
▁don ate
▁don ald
ider ed
▁under cover
▁sun ny
▁cle ver
the y
▁health care
▁mark er
▁ic eland
▁mag net
▁mag ginoodle
▁hah aha
▁vir us
▁vir gil
▁over load
▁over look
▁fore ign
bur st
de en
▁pop ul
▁pop ular
▁den ier
▁den mark
▁dro id
mar ket
oe ver
▁control û
▁control ler
▁control led
erg ate
▁clos ing
▁hat cap
▁no vel
▁no aa
▁offensive åêcont
▁transport ing
▁test ed
▁test im
▁pur chase
▁form ed
▁wed augth
▁vill ager
▁int act
▁int rod
▁int elligence
▁begin ner
▁brit ain
▁tech ni
▁front page
▁other wise
▁sol o
▁sol id
▁sol ve
▁ww i
▁ny t
▁grow th
▁occ urs
load ing
▁share this
▁sex y
▁prov ide
▁saf ely
▁gener ally
▁online commun
▁cry ptic
ific ate
▁soudel ors
▁open ly
▁listen bu
▁listen live
▁ol ap
▁ol der
▁ol ive
▁ol iv
▁ben gal
▁ann oying
▁cond o
▁cond olence
▁rob inson
▁blizzard dra
▁so ak
▁so ccer
▁cor p
▁cor al
▁bbc news
▁la id
▁aut umn
▁beh alf
▁adv enture
▁social ism
▁social med
ca ine
ca fe
yy y
▁son of
▁cut ting
▁but t
▁bill ing
▁bill board
▁port ion
▁main t
▁det ained
▁uk raine
▁radio active
▁blow ing
▁blow out
▁blow mandy
▁australia ûas
kn ifes
▁record ed
▁pray er
▁silver gray
▁squ are
▁squ ee
▁gop debate
▁metro fm
▁camer a
▁mc donald
▁mc ilroy
▁fashion able
▁da esh
▁auth entic
unt ary
▁arri ving
▁pull ing
ald o
▁dev alue
▁vis ited
▁seem ed
▁apollo brown
▁respond ed
▁commun ication
▁washington post
iat ely
iat odos
tw eets
▁ill ino
▁ill ustration
▁sig alert
▁bb sp
▁bud d
▁mi rage
▁mult idim
▁mention ed
▁dist rib
▁dark ness
▁ho ax
▁join ing
▁appro pri
for ce
▁sam pling
▁sam arit
▁bre athe
▁bas ic
▁bas ement
▁bul ly
▁pun ish
▁los es
bor der
fall on
har per
pre sa
sk in
inc ident
▁tun is
▁tun nel
▁tim eline
ution al
▁local û
▁prof ession
▁leader ship
iam s
yon pc
▁bear d
orge ous
▁ham as
▁ham ilton
lect roc
▁non compliant
▁const ant
▁const ruction
▁spe ak
▁forg iven
▁sitting û
bro oke
bro ther
wa it
inst ein
▁cow ork
ould ing
▁nav bl
▁nick cannon
▁stress ed
▁stress ful
▁examin er
iven ess
▁adm inist
▁emp loy
▁enter ing
hear ton
rr r
▁bow ling
▁matt son
▁fra ction
▁fix ed
▁fix ing
▁lat ely
▁lat imes
▁lat ino
▁lift ing
▁jul ian
▁lock er
▁suffer ed
▁prem ium
▁prem ature
▁predict ion
▁photogra pher
▁caps ized
▁impact ed
ci us
▁ult imalucha
▁fro g
▁fro zen
▁lu is
▁lu cy
▁lang ley
▁hop ing
▁gam ergate
▁ren ew
▁vac ation
▁jew el
▁jour ney
▁compl aint
▁organ ization
▁slow ly
▁snap chat
▁colle ge
▁grab ber
ao h
pect ive
▁cir cle
▁bott le
▁dom in
▁dig it
▁dig ital
▁hy brid
▁eat en
▁gar bage
▁requ est
▁requ ired
▁that ûas
▁lif etime
▁shel by
▁unf ort
▁unf old
▁charl otte
▁robot rainstorm
▁corre ct
▁psych ological
pd nashville
▁ian hell
▁si oux
▁cast le
▁tal ent
▁tal iban
▁trol l
▁pitch er
▁fill ed
▁nbc news
▁jac ket
▁loop ing
▁spl at
▁spl it
▁rol ler
▁phys ician
▁maria h
▁democ rat
▁forb id
▁itunes music
▁agre es
▁prompt ed
inj ured
▁cart oon
▁mat thew
ste in
▁reop ening
▁thet wister
▁champ ionship
▁shock ed
▁rac ing
▁becom ing
▁appl ication
▁affect ing
▁register ed
▁harry bec
▁throwing knifes
▁custom er
mor gan
rat io
▁odd s
▁bol ster
▁bare ly
▁dann yonpc
orp ion
▁how ever
▁hyp e
▁ast rolo
▁ach ie
▁gate au
▁resh apes
▁ver dict
▁jenn ifer
▁exist ence
▁anx ious
▁anx iety
quis ite
▁frank lin
▁artist sunited
▁regard ing
▁neighbor hood
▁oppos ition
▁journal ist
▁environment al
▁btw n
▁til now
▁patch ed
▁merc ury
▁wb ioterrorismampuse
▁wid espre
▁gil bert
▁rick perry
char ley
▁wheel er
▁calum sos
▁jose ph
▁desp ite
▁deser ves
▁refer ring
▁milk shake
▁veget able
▁veget arian
▁belong s
▁belong ed
▁install ation
hhhh h
▁cleared incident
▁describ ing
▁describ es
▁disappear ance
▁croat ian
▁dorret s
▁demonst ratio
▁connector connect
▁spinning bot
▁ptsd chat
bus alerts
dot com
haz ard
offic ial
part y
▁ì ñ
▁cb cca
▁cub an
▁cec ilth
▁cert ificate
▁brief ing
▁trem or
▁tiny jech
▁pis gah
▁pers pective
▁mk x
▁mn pdnashville
strike s
▁wrap up
▁hal ifax
▁eth iop
▁nec essary
▁ku wait
▁liz ard
▁chick en
quar ter
▁ariz ona
▁scot land
▁attend ance
▁contrib ut
▁explo it
▁perman ent
▁diffic ult
▁partic ularly
▁hurrican ed
▁barack obama
▁transf ormation
▁terrif ying
▁taxi way
▁disappoint s
▁encoura gement
▁sudden ly
▁inevit able
zu ela
▁ont ario
▁byp ass
▁tfl busalerts
▁pd x
▁ps alm
▁pix el
▁ment ally
▁mull ah
▁fig ure
▁dip lom
▁lyn ch
▁lgl org
▁hig her
▁hab it
▁hai yan
▁aber deen
▁nsf w
▁reven ue
americ a
▁ster ling
▁stew art
▁var iety
▁vamp iro
▁verm ont
▁init ial
▁kash mir
▁kore a
▁chew ing
▁yug vani
▁jas mine
▁jess ien
▁amir ite
▁blks ampw
▁sput nik
▁unaw ares
▁unkn own
▁unhapp iness
▁clay tonbry
▁knox ville
▁bron x
▁immed iately
▁greet ing
▁indones ia
▁legend ary
▁interse ction
▁inspect ion
▁aven ue
▁columb ia
▁infect ious
▁signific ant
▁brad ley
▁experienc ing
▁relation ship
▁faroe islands
▁tox ic
▁icym i
▁saddle brooke
▁simp ly
▁occup ant
▁davidv onderha
▁propertycas ualty
▁circ uit
▁jimmy fallon
▁celebr ation
▁contempl ating
cru z
dan iel
fring e
▁ub er
▁orn ament
▁sass y
▁sos fam
▁sket ch
▁sne ak
▁sov iet
▁symp athy
onym ous
▁bew are
▁bern ard
▁birm ingham
▁balt imore
▁besid es
▁tab û
▁tah oe
arab ia
▁dol phin
▁dund ee
▁dwar f
▁wann abe
▁hamp shire
▁himal aya
▁naj ib
▁gord on
▁gerenc iatodos
▁recycl ing
▁stren gth
advoc ate
▁rif le
▁rworld news
▁vood oo
▁vene zuela
▁vlad imir
▁nestle india
▁koin news
▁ooo h
▁cherno byl
▁jup iter
▁jih ad
▁blued io
▁spenc er
▁trub gme
▁proced ure
▁scoop it
▁unavoid able
▁newsint weets
▁offers go
▁usnws gov
▁accionem presa
▁johann esburg
▁zakbag ans
▁rtrr t
▁embro idered
▁embar rass
▁landsc ape
▁goodby e
▁schiph ol
▁ihh en
▁ibook love
▁realmandy rain
▁elij ah
▁ûïrich mond
▁humancons umption
▁modiminist ry
▁experien ced
▁mountaine ering
▁supernat ural
▁offensiveåêcont ent
▁onlinecommun ities
▁listenbu y
▁blizzarddra co
▁blowmandy up
▁metrofm talk
▁mcdonald s
▁illino is
▁ianhell fire
▁harrybec areful
▁widespre ad
▁connectorconnect o
▁cecilth elion
▁tinyjech t
▁blksampw hts
▁claytonbry ant
▁davidvonderha ar
a al
a id
a ver
a ud
a ult
a its
a uthor
a uspol
b n
b w
b is
b ol
b od
b es
b ug
b old
b ase
b ane
b ee
b ush
b ile
b ris
b attle
b aa
b au
b uff
b ird
b oth
b road
b bit
b rad
b read
b uds
c j
c s
c z
c lo
c ut
c ine
c end
c ry
c up
c ous
c ident
c ade
c ope
c mp
c amer
c ubs
d b
d s
d or
d ol
d et
d est
d ry
d ty
d ream
d ash
d og
d ave
d ies
d ram
d emon
d abe
d rome
e g
e y
e ur
e cy
e ath
e ase
e lectroc
f ed
f un
f et
f orm
f ree
f ers
f ather
f ax
f ob
f itness
f eller
f ried
f inger
f pa
f olk
f loyd
f ollow
f iles
g w
g is
g om
g id
g ot
g ow
g ia
g ri
g em
g ass
g old
g ile
g ical
g aming
g boot
h d
h l
h m
h q
h or
h ad
h ack
h all
h ub
h ud
h ick
h old
h ave
h arm
h igh
h unt
h orse
h anded
h unting
h anced
i ad
i ating
i ya
i hood
i web
i ography
j e
j s
j u
j en
j am
j ac
j av
j ew
j ones
j ett
k r
k ed
k el
k am
k ot
k ah
k itt
k ans
k ny
k yle
k ward
k wy
l f
l g
l v
l an
l en
l as
l ast
l ink
l cy
l ittle
l ene
l aken
l uke
l awn
m ic
m it
m il
m id
m es
m ul
m all
m age
m cc
m ary
m ber
m ash
m other
m int
m ined
m ov
m bal
m tv
n f
n j
n k
n p
n r
n v
n es
n ab
n ell
n gr
n hem
n ature
n osis
o ch
o ear
o ak
o vel
o ided
o ors
o iled
o hhhh
o ices
p g
p y
p it
p ra
p ig
p ine
p ass
p our
p ence
p co
p ren
p ower
p ret
p gt
p ike
p rem
p oint
p pling
p attan
p eech
q a
r h
r w
r ar
r ou
r ra
r id
r ate
r um
r ary
r ush
r ought
r ale
r ator
r ough
r atch
r ude
r ative
r ussia
r mg
r oute
s ar
s or
s it
s is
s om
s ur
s sh
s ie
s ound
s ink
s ure
s up
s of
s uk
s ville
s eller
s no
s ica
s outh
s strikes
t c
t i
t p
t z
t an
t un
t ent
t est
t ake
t our
t ube
t ai
t ape
t ornado
t ains
t oday
t ips
t omlinson
u v
u w
u ì
u ert
u ished
u atu
v b
v u
v ro
v od
v as
v ir
v ant
v iv
v ance
v news
v ict
v ale
v ision
v ative
v ins
v war
v oy
v fac
w b
w d
w t
w om
w el
w ear
w ab
w ave
w sl
w orth
w ama
w ec
w au
w yn
w ield
w alt
w berry
x i
x n
x ie
y o
y ar
y or
y ch
y es
y be
y yc
y ote
y ster
y agi
y adh
z f
z i
z ar
z or
z el
z one
z ania
å t
û ò
▁ ia
▁ oun
▁ ome
▁ ive
▁ our
▁ eric
▁ ired
▁ oth
▁ ivan
in h
in w
in x
in ing
in ent
in et
in ag
in est
in ak
in ated
in art
in ite
in ction
in vest
in åê
in ûa
in lcy
▁s q
▁s z
▁s ed
▁s le
▁s od
▁s ct
▁s ack
▁s ug
▁s if
▁s ell
▁s our
▁s iz
▁s way
▁s ole
▁s irm
▁s ided
▁s que
▁s ami
▁s oooo
▁s sw
▁s irt
▁s edu
▁s ample
▁s fg
▁s elling
▁s ession
▁s aku
er a
er û
er en
er el
er un
er ia
er os
er ang
er son
er ely
er ga
er ies
er vation
re g
re x
re ated
re ase
re feld
re spect
re pren
▁c i
▁c m
▁c s
▁c u
▁c st
▁c ort
▁c ain
▁c ite
▁c ody
▁c ach
▁c roy
▁c ope
▁c ared
▁c elt
▁c bc
▁c rist
▁c sp
▁c ement
▁c fc
▁c ried
▁c joy
▁c mon
▁c erv
▁c indy
an or
an om
an el
an ch
an th
an ie
an ity
an ium
an yn
an imal
an that
an sey
an kee
an heart
on on
on ad
on ent
on et
on os
on na
on fire
on io
on cancer
▁b k
▁b n
▁b û
▁b om
▁b od
▁b ent
▁b ast
▁b ri
▁b ist
▁b ie
▁b ice
▁b ust
▁b ann
▁b ass
▁b ah
▁b iz
▁b ark
▁b anc
▁b ummer
▁b ened
▁b ible
▁b ike
▁b kn
▁b aff
▁b ye
▁b abe
▁b umper
▁b oring
▁b wp
ed irection
▁t c
▁t j
▁t n
▁t p
▁t s
▁t x
▁t in
▁t ou
▁t ol
▁t el
▁t ay
▁t ig
▁t as
▁t ch
▁t ire
▁t ast
▁t ant
▁t sh
▁t ail
▁t os
▁t ang
▁t ory
▁t act
▁t ower
▁t ix
▁t imes
▁t girl
▁t iger
▁t ask
▁t oky
▁t aught
at z
at ur
at ul
at ak
at omic
at ron
at form
▁p û
▁p or
▁p ion
▁p od
▁p ine
▁p end
▁p iv
▁p aw
▁p ale
▁p unk
▁p ubl
▁p ik
▁p sa
▁p ony
▁p iner
▁p orc
▁p omo
▁p earl
▁p aved
▁p undit
▁p kwy
▁m b
▁m v
▁m w
▁m z
▁m û
▁m ra
▁m am
▁m ast
▁m ack
▁m ul
▁m ip
▁m are
▁m ath
▁m ash
▁m ute
▁m ale
▁m esh
▁m uk
▁m mm
▁m af
▁m sm
▁m aker
▁m sn
▁m outh
▁m ì1⁄4
▁m gm
▁m oulding
ar p
ar ri
ar ant
ar ama
ar aa
ar ca
ar gent
▁f m
▁f u
▁f el
▁f ion
▁f ot
▁f ir
▁f ist
▁f ew
▁f na
▁f ond
▁f ence
▁f ury
▁f ris
▁f irm
▁f unk
▁f te
▁f ts
▁f aul
▁f ried
▁f aint
▁f ias
▁f ieg
▁d u
▁d in
▁d ir
▁d ia
▁d ab
▁d ice
▁d ive
▁d ame
▁d up
▁d ial
▁d ang
▁d amp
▁d ign
▁d yn
▁d oth
▁d uke
▁d ressed
▁d ancer
▁d vc
▁d orman
▁d oret
ing h
ing le
ing ame
ing news
al p
al s
al em
al ous
al ley
al gia
st ation
st ill
st ud
st ream
st ition
st able
st he
st ret
st atic
st ories
▁l as
▁l ag
▁l ap
▁l em
▁l ous
▁l ance
▁l ash
▁l ans
▁l ope
▁l anc
▁l ying
▁l inds
▁l iner
▁l ucha
▁l loyd
▁l ubb
▁l aura
▁l uka
▁l lf
▁l np
or ter
or ama
or ical
or ship
or fi
▁w c
▁w n
▁w en
▁w od
▁w es
▁w ide
▁w ack
▁w ce
▁w ard
▁w ud
▁w art
▁w ah
▁w oc
▁w iz
▁w ft
▁w pt
▁w rest
▁w ale
▁w attle
▁w aking
▁w bc
▁w ipp
▁w itch
▁w we
▁w pri
▁w fp
▁w ilsh
en m
en ga
en joy
en gal
en gl
▁h û
▁h en
▁h em
▁h av
▁h ew
▁h ick
▁h ue
▁h ass
▁h oo
▁h ash
▁h og
▁h ave
▁h ool
▁h int
▁h ere
▁h alt
▁h mu
▁h enry
▁h aley
▁a u
▁a er
▁a ar
▁a is
▁a qu
▁a uck
▁a og
▁a ren
▁a aaaa
▁a quar
ic in
ic as
ic et
ic os
ic ott
ic ana
ic itor
ic inity
ic aro
le l
le st
le ad
le ard
le ment
le ts
le hem
le oned
it i
it an
it up
it fro
it utional
ou ce
ou ss
▁e z
▁e ve
▁e sh
▁e ud
▁e ther
▁n v
▁n it
▁n ke
▁n op
▁n ash
▁n oon
▁n iss
▁n ope
▁n yp
▁n ts
▁n uff
▁n aren
▁n ba
▁n iag
▁n rc
▁n nw
▁n erv
▁n iall
▁n ixon
il ver
il ight
il ated
il te
▁g d
▁g n
▁g ro
▁g is
▁g ur
▁g ent
▁g ag
▁g if
▁g ail
▁g az
▁g ary
▁g aw
▁g yp
▁g oul
▁g ulf
▁g mm
▁g ett
▁g ander
▁g orgeous
▁g ansey
ro a
ro b
ro at
ro id
ro ot
ro ke
ro ch
ro ok
ro oper
ro bin
is i
is u
is en
is po
is not
ol o
ol s
ol y
ol at
ol ic
ol is
ol ly
ol ation
ol ce
ol ie
ol ition
ol lege
▁re y
▁re ne
▁re be
▁re inst
▁re agan
▁re ef
▁re jected
ra z
ra od
ra ft
ra ys
ra ps
ra ki
om et
om rad
om ato
el en
el ap
el ie
el ug
el phia
am s
am an
am il
am is
am ir
am ous
am ber
am ies
id o
id on
id raps
ion sw
ac on
ac oll
ac ular
ac ramento
ac erb
ac cident
ay o
ay s
ay la
ot ive
ot hing
ot com
ur i
ur t
ur or
ur ne
ur kin
ur render
ur gis
ke c
ke m
ke st
ke ter
ke ep
ke mon
ke feller
▁st s
▁st u
▁st y
▁st ag
▁st ack
▁st em
▁st all
▁st out
▁st ole
▁st ans
▁st ark
▁st ates
▁st roke
▁st urgis
▁de e
▁de y
▁de act
▁de lete
un s
un ews
un te
un ts
un ted
un ette
ig a
ig in
ig il
as ant
as les
as olar
ad d
ad l
ad ing
ad as
ad os
ad og
ad eth
ad dict
ad elphia
ve ment
ve gas
ve mber
ent o
ent s
ent less
ent ially
▁r b
▁r j
▁r r
▁r ated
▁r ue
▁r ond
▁r ory
▁r sp
▁r ival
▁r ih
▁r pics
▁r cmp
us an
us ky
ow ler
ow ae
ow itz
et ry
et own
et os
et wo
et jw
▁v v
▁v ent
▁v ag
▁v ab
▁v ice
▁v ash
▁v ix
▁v ida
▁v arious
▁v ince
▁v eld
▁v oted
▁v antage
▁v gboot
▁v icinity
▁v igil
im k
im o
im el
im ag
im ota
ch a
ch i
ch ed
ch el
ch em
ch ant
ch ip
ch app
ch ange
ch ased
ch ief
ch icago
▁in û
▁in ec
▁in mate
es om
es ex
es back
es boro
▁ne v
▁ne il
▁ne ck
▁k g
▁k p
▁k or
▁k un
▁k ir
▁k ap
▁k os
▁k irst
▁k ather
▁k ith
▁k han
▁k any
▁k alin
▁k owing
▁k arma
▁k iev
▁k refeld
▁k raft
▁th a
▁th y
▁th om
▁th est
▁th ew
▁th rown
▁th ief
▁th yro
▁th roat
ir i
ir andeal
ag u
ag en
ag il
ag ick
ag ull
▁o st
▁o ct
▁o ph
▁o so
▁o gt
▁o vers
▁o ptic
ct ure
ly c
ly m
▁li v
▁li ver
▁li vel
▁li able
▁li vest
▁li ability
ver e
ver anom
op l
▁ch o
▁ch p
▁ch an
▁ch as
▁ch ow
▁ch ap
▁ch and
▁ch ip
▁ch ub
▁ch uck
▁ch arm
▁ch ose
▁ch ron
▁ch erry
▁ch anging
▁ch once
▁ch attan
th ard
th ep
th ought
th enews
th omp
ap a
ap ocal
ap orama
ap olis
and om
and ers
and emonium
▁y u
▁y am
▁y um
▁y our
▁y oug
▁y og
▁y pre
▁y onews
▁y ankee
▁j p
▁j ag
▁j ak
▁j age
▁j ok
▁j ann
▁j ade
▁j unk
▁j ana
▁j erry
▁j umper
▁j ailed
▁j eep
▁j kl
▁j haust
▁j edi
▁j dabe
▁j uror
lo z
lo or
lo cal
lo ops
ide mic
se e
se ct
se pt
se ason
se ven
se ye
ack ed
▁sh an
▁sh ed
▁sh am
▁sh ay
▁sh es
▁sh ia
▁sh iz
▁sh ade
▁sh ore
▁sh uff
▁sh atter
▁sh aker
▁sh ania
▁sh ira
▁sh aped
ut d
ut t
ut z
ut ia
▁se p
▁se ed
▁se al
▁se aw
▁se lect
▁se wer
▁se lection
▁se agull
ri ver
ri age
ri pt
ri bean
ul z
ul se
ul ating
um er
um es
em ur
em ans
em ix
em ories
ight s
ant s
ant ry
ant ib
ant to
ant iqu
ill ed
▁am s
▁am es
▁am ate
▁am ageddon
▁am een
sh h
sh all
sh ine
sh aw
sh ai
sh oot
sh eriff
est h
▁new û
▁new bie
▁new zs
▁new berg
▁lo ret
▁lo gan
▁lo com
▁lo oooo
▁lo oter
ist on
ist ing
ist ent
ist ics
ist annews
ist orical
orm ed
orm ous
ak a
ak y
ak ar
ss il
ss om
ss el
ss ler
▁ex ter
▁ex ting
▁ex ited
▁ex acerb
all hearton
der s
der er
der ed
der ly
der ailed
der abad
▁an i
▁an im
▁an ell
▁an arch
▁an za
▁an iston
qu et
qu ote
qu ality
qu ito
ter m
▁tra ce
▁tra gic
▁tra ding
▁tra vis
▁tra verse
ie x
ie ged
ug al
▁con gr
▁con nor
▁con vert
▁fire y
▁fire û
▁fire work
▁fire tr
▁ar nhem
▁bl a
▁bl ank
▁bl onde
▁bl unt
▁bl utz
▁su h
▁su bc
▁su prem
▁al h
▁al s
▁al ot
▁al ph
▁al loy
▁al ois
ab i
ab er
ab or
ab eth
ab oss
ab ello
ab bott
▁le on
▁le ban
▁le aked
▁wor n
▁pl aced
▁pl astic
▁pl acing
▁pl lol
▁pl uto
▁pl edge
▁pl enty
▁pl atform
ity the
ip in
ip ing
ip le
ip oli
▁sp r
▁sp it
▁sp am
▁sp ell
▁sp ont
▁sp oke
▁sp ray
▁sp onsor
▁sp onge
ild ren
ning ton
ome ver
omb ia
omb erg
att s
▁dis order
▁dis miss
▁go on
▁go sh
▁go of
▁go oooooo
▁go lem
▁go fund
if ornia
if ying
if ies
age os
▁tr p
▁tr u
▁tr uel
▁tr inity
▁tr ancy
▁tr illion
▁tr icia
ail able
▁ro s
▁ro ver
▁ro ger
▁ro ster
▁ro hn
▁ro gue
her ic
ound s
ard e
ard u
pl er
pl ot
pl us
pl ine
pl if
pl aced
av an
av age
av alanche
av ior
ell i
ell s
▁amp st
▁pro c
▁pro l
▁pro of
▁pro xy
ok i
▁ra m
▁ra w
▁ra cc
▁ra he
▁ra ised
▁ra ider
▁ra mm
▁ra mp
▁ra ung
▁ra zing
▁ra ì1⁄4
▁ra pping
▁ra chel
ind yn
ph il
ust rated
ust omed
ge on
mer s
mer man
mer chant
end rick
▁man ia
▁man aged
▁man uf
▁man ifest
▁man utd
ew r
ew is
ew ay
ew antto
ub cont
ub araa
ud dle
ure gu
▁we allhearton
▁co re
▁co il
▁co ch
▁co aster
▁co sp
▁co inc
▁co gn
▁co ahu
▁co caine
▁co yote
iv ative
▁ev ans
▁ev anston
▁sc ra
▁sc out
▁sc our
▁sc wx
▁sc uf
▁sc andal
▁sc orpion
▁sc ratch
▁sa hib
▁be an
▁be et
▁be head
▁pe ac
▁pe ak
▁com o
▁com ic
▁res idual
az ine
▁û a
▁û n
▁û åê
▁û face
▁û good
▁û plot
▁un r
▁un t
▁un ity
▁un ite
▁un rest
▁un com
▁un rel
▁un cont
▁un to
▁un ique
▁un nec
▁un stable
ick in
art z
▁fo ssil
▁pre z
▁pre pp
▁pre pper
▁pre mon
▁pre order
▁pre season
ann e
ann y
ann er
ann ah
ann dty
▁coll ins
▁he el
▁he he
▁he ys
ess a
ess er
ess ed
▁is il
ah y
ah rary
ish op
▁bo ise
▁bo bc
ime hh
▁fl ed
▁fl ush
▁fl aw
▁fl uid
our t
our ing
our se
our ry
orn ian
orn gang
▁news watch
▁news gold
▁news arama
os l
os ure
os aur
▁cl d
▁cl ap
▁cl own
▁cl eric
▁cl aire
▁hi ker
ment al
▁qu ot
▁qu ant
▁qu oted
▁qu artz
ath s
ath on
▁war rior
▁bur gl
▁wh ose
▁wh ene
▁wh eat
▁wh oop
▁wh atever
▁wh oever
▁wh omever
ber ra
ber ts
ber roa
▁bu ch
per s
per ed
per or
per ty
per sed
▁cal i
▁pol ar
ton y
cl ub
▁ph ew
▁ph ase
▁att ic
▁att ained
▁att ract
▁att raction
▁kn ight
▁kn eel
▁off r
▁off ram
▁en û
▁en act
▁en ca
▁en core
▁en abled
▁en hanced
▁en route
▁en ormous
ang i
ang irl
▁br itt
▁br uise
▁br isk
▁br unette
bl r
bl ake
bl own
bl iss
bl ower
▁sur uc
▁sur ger
▁sur fer
▁sur render
▁sur uì
▁sur yar
▁car b
▁car r
▁car los
▁car ib
▁car pet
▁car olina
oc v
oc ris
oc racy
▁video veranom
▁us ar
▁ca fire
▁ca wx
▁ca iro
▁ca esar
iz a
iz er
iz on
iz bw
iz abeth
son ido
▁cr uise
▁cr usty
error ism
ond ent
▁mo v
▁mo le
▁mo sh
▁mo ore
▁mo ham
▁mo ores
▁mo bile
▁mo yo
▁im s
▁im db
fe ed
▁emer g
▁emer ges
▁fe z
▁fe instein
▁fe vwar
▁fat ally
▁fat bur
▁te ase
▁te eth
▁every body
▁every time
ens c
ens i
ens û
ens ed
▁mar ley
▁mar lon
▁mar keter
▁mar shall
▁tw ove
▁tw cnews
▁tw ilight
▁home owner
amp i
amp lost
iot t
▁sm iling
▁body bag
oo ga
oo za
▁acc ustomed
ep t
▁dest ruct
▁dest ination
▁hel en
▁hel ene
▁hel sink
▁hel pline
way stan
▁ser ve
▁ab ia
▁ab used
▁ab ubaraa
ism an
▁cont ruction
▁cont ract
▁may or
▁day today
ash ima
▁red d
▁red es
▁red iscover
▁red handed
▁fatal ities
▁jo ined
uc ing
uc leard
▁back pack
ull en
und ry
▁wild horses
▁world wide
ave s
ank a
act ured
▁dem i
▁dem s
▁gre edy
▁storm chase
oon s
oon anheart
▁min a
▁min us
▁min haz
▁min imehh
▁exp ans
▁exp ose
▁exp ense
▁exp osed
▁exp osure
▁evacu ating
▁z ero
▁z abad
▁z ipper
▁calif ornian
ely nbc
▁ear n
▁ear ned
▁ear buds
▁der ivative
▁po em
▁po kemon
▁ap ril
▁gu arant
ern û
ont op
▁hear itfro
sl and
▁me inlcy
▁me asles
▁mass mur
▁des k
▁des per
▁out age
▁out let
▁out fit
▁out bid
▁sw itch
▁sw eep
▁sw ept
▁bag o
▁ad ri
▁ad orable
▁suicide bomb
ual ity
▁let sf
lear oncancer
▁ind i
▁ind y
▁ind ec
▁ind ex
▁ind iff
▁ind oors
▁scream que
▁rt america
ers burg
▁em i
▁em il
▁em ile
▁em sc
▁em my
▁em peror
▁wind y
▁dead liest
pt ation
▁dam bis
▁pm harper
▁pm arca
news desk
▁gr ind
under ground
arm mos
▁del ta
▁del icious
▁north land
aw al
aw are
aw niest
co op
co ach
co ffee
▁leg io
▁leg isl
ile y
▁up town
▁up wards
▁up loading
▁best seller
▁per ry
▁per quisite
▁per mit
▁per tains
▁di ff
▁di vers
▁di verse
▁di arr
▁di aporama
▁di ageos
▁inter state
▁inter laken
bo b
▁make th
▁cann on
land ers
ris es
▁rem ark
▁play station
ec on
man ia
ket t
ple x
▁wom en
ress ing
ress ive
alk s
ower y
▁expl ain
▁expl icit
▁destroy er
oke e
▁feel in
jack er
▁bus y
▁ok g
▁ok t
▁sec ured
▁sch war
▁hor izon
▁rain ed
▁rain ier
▁bro oke
▁ref und
▁hirosh im
▁pan cake
▁at k
▁at le
▁blood ym
▁mur fre
▁ins as
▁ins ight
▁ins ult
▁ins omn
▁ins ubcont
apon s
▁serv ant
ans a
ans ûa
▁af c
▁af p
▁mil i
▁mil wau
▁miss ile
▁act ed
▁act or
▁act ress
ne al
ne eds
ne elynbc
▁x b
▁x l
▁x ox
▁x avier
▁fr an
▁fr iggin
▁ty p
▁ty pical
▁ty po
▁med al
▁med itation
▁happ ily
ek id
▁ob am
▁ob vious
▁ob ispo
los ed
▁phot oset
be ck
be ans
▁sl id
▁sl ight
▁sl ave
▁sl ipped
▁sl icker
▁rec reates
▁resp ected
hing s
▁ke vin
int end
▁i b
▁i j
roph one
▁jap ton
▁hot test
▁as f
▁as ics
▁as yl
▁as pect
▁as bury
ouse y
▁real ised
▁real ization
▁right ways
▁right waystan
▁riot er
▁thank ful
▁thank fully
▁black pool
▁quar rel
uch i
uch ov
▁ir ony
▁ir vine
▁sn d
▁sn ake
▁sn uff
▁sn iping
▁for û
▁for rest
▁for sure
▁long term
▁haz mat
▁ey ec
▁water town
▁water mel
of est
of ree
he a
he at
▁set list
▁lol ol
▁ru ther
▁che at
▁che ap
▁che yen
▁che vro
▁che etos
▁head quarter
▁hazard d
▁u f
▁u v
▁cre ating
▁cre ates
anc indyn
▁mus ik
▁fall acy
ult aneous
▁any ways
▁fin ished
ret e
▁el sa
▁el bow
▁el izabeth
▁fatality us
sc ience
sc rim
▁live online
▁live leak
▁end anger
▁end ures
▁end orses
▁sk i
▁sk im
▁sk ipping
▁sk anndty
▁part icip
▁str ut
ember th
aug a
aug h
▁cur ren
▁cur ios
▁nat o
▁nat alie
▁vi bez
▁comp ound
▁comp ens
▁comp onent
▁av enger
▁av oided
▁av ailable
▁col o
▁col der
▁not ed
▁not ley
▁not expl
▁state û
▁ed ge
▁invest ing
▁eng age
▁eng va
▁great british
ert park
▁post battle
▁mal ik
▁fun ction
▁ûï s
▁ûï you
▁ûï bbc
▁ûï stret
edd y
edd esolate
▁house hold
ley ball
▁never ending
▁the ological
▁the advocate
con s
con flict
▁hit ch
▁ac del
▁ac quis
▁inf ose
▁inf ilt
▁inf inity
▁inf erno
▁inf inite
▁inf amous
▁inf antry
▁show ing
▁confirm ation
▁cross border
▁met er
▁met life
▁care less
▁top stories
▁with dra
▁hope in
ga e
so x
åê c
åê ch
åê inåê
▁ve ssel
elt bgt
▁investig ate
gin s
▁some where
▁bar ra
▁bar ry
▁bar uch
▁bar ring
▁bar rier
▁pick up
▁pick ens
▁pick erel
▁hell a
▁week old
oot ball
▁night mar
▁rep ay
allow ay
down e
▁bet z
▁hand le
▁hand ling
▁gt ii
▁gt fo
▁op ed
ough out
▁sound ing
▁free from
▁dra w
▁dra in
▁susp ense
▁bad ge
▁wa ist
▁ep idemic
▁ste ak
▁stand with
▁summer time
▁kid ding
iel le
sp ondent
reat ening
▁coun cil
▁comm od
▁comm and
▁comm enc
▁coming soon
▁south west
ob ser
ob iography
rant ed
▁hum ble
▁ur s
▁ur anium
▁tom ato
▁tom cat
▁gl en
▁gl ink
▁gl enn
▁gl imp
▁gl oria
▁gl ouce
ii k
▁it z
▁sand y
▁mom my
rol led
▁vol ta
▁vol untary
▁vol unte
▁vol leyball
▁keep ing
▁hol ed
▁hol mg
▁aw www
▁aw aits
▁aw kward
▁aw esom
▁list ing
▁explos ive
▁area û
▁ent repren
▁sign up
▁can on
▁can oe
▁can vas
▁can berra
▁pak pattan
▁pak istannews
▁mod est
▁mod ern
▁mod erate
▁spec ie
▁rock star
▁rock bott
▁lightning ca
ys er
▁bra ce
▁bra ss
▁blo ssom
▁blo omberg
▁west on
▁west eros
▁gen ev
▁gen ius
▁inc ome
▁inc ase
▁oh my
ffic ient
▁art ific
▁trans gen
▁heart warming
▁migrant sû
▁on lin
▁pat na
▁sub m
▁sub st
▁sub tle
br k
br idge
ied e
ied icaro
▁ut v
▁ut ah
▁down fall
▁down stairs
▁down pour
alf unko
▁lot z
▁gra in
▁gra ss
▁gra vel
▁inst antly
▁supp ly
▁market force
▁sal ty
▁sal man
▁sal vis
▁bang in
▁par ade
▁inv ited
▁inv aded
▁spill ed
▁bridge port
▁snow y
▁snow ball
▁snow den
▁follow back
▁tem p
▁tem ec
▁tem ptation
▁star ving
imate pco
▁cost ly
▁person ally
▁person nel
ik h
ik o
erm ac
▁do ve
▁dust storm
▁dust pig
▁reg ime
▁rel ive
▁rel igion
▁rel entless
▁tonight ûas
▁cour sing
▁win ning
▁win ner
▁ag n
▁word press
▁displ ay
▁imp ro
▁imp os
▁imp ending
▁imp rison
▁imp ulse
▁imp ressive
▁ruin ing
cra sh
com edy
▁cop ing
▁cop per
▁cop ped
▁my th
▁my fitness
▁stock ton
▁rub y
▁team stream
ib i
▁camp fire
▁past a
▁mid get
▁mid west
▁mid night
▁mid south
▁mos quito
ster ia
itch en
izz o
izz y
▁county news
fl ame
fl ix
wood s
yn et
yn kelly
▁fav s
▁dec ent
▁dec rease
▁super stition
▁white house
▁add ition
▁add ict
▁explod ing
▁explod es
▁came o
▁talk in
▁talk radio
▁mor bid
▁mot ion
▁lab or
▁lab el
▁lav ender
▁har sh
▁har ass
▁har ris
▁har wich
▁ret ire
▁ret ract
▁poss ibility
kk er
▁hun ting
▁deal breaker
che z
che ck
che bag
▁shoot er
bal d
hh h
we alth
we apons
▁hard y
▁hard ly
▁hard core
urs days
▁def ine
▁rd horn
▁just mar
▁just ified
▁just ifying
ffer son
▁ext ensive
▁ext ension
▁ext ender
▁pres ence
▁pres ervation
del o
del sonido
▁sat urn
▁soc ket
▁pal ermo
▁fre qu
▁fre estyle
▁fre sno
▁fre eway
▁don ation
▁don ington
▁don åt
▁river sis
▁under water
▁under writer
cover ed
pe ople
▁sun ni
▁sun shine
▁count less
▁tsun amies
▁pet e
▁pet er
▁pet erj
▁react ed
the bomb
▁health y
▁ask s
▁ask charley
▁beaut y
▁volcano åêinåê
bab es
bab we
▁walk ed
▁threat en
▁prep ares
▁prep aring
clus ion
▁ic l
▁ic onic
▁cam per
▁cam ilac
▁pot entially
▁mag ner
▁mag isters
▁find ing
alan ches
▁hah ah
▁stri p
▁stri king
▁over work
▁over time
▁blue pr
▁peace fully
▁fore x
eek s
▁sky line
▁sky war
de v
any ahu
▁pop lar
▁den y
▁den ial
▁den ali
▁dro ol
▁dro pping
▁now here
▁kind ly
▁kind ness
▁tweet like
ten se
▁er a
▁er go
▁ant e
▁ant onio
▁die please
▁lear ned
▁ass ass
▁ass istant
▁mess i
▁mess ed
▁hat red
▁ash ley
▁ash ayo
▁no vember
▁conc rete
ka ine
▁ign or
▁ign ore
▁ign ored
ins ight
ins ider
▁sim on
▁sim ulation
▁sim ultaneous
▁cou ld
▁cou rage
▁test ing
▁tree porn
▁pay day
▁pur chased
▁form ation
its sept
▁ge omet
▁ge yser
▁rest ive
▁rest oring
▁stud io
▁int rig
▁jon voy
▁comple ted
▁brit on
▁brit ney
▁tech esback
▁point ing
▁front lines
af s
af ter
ced ented
cal gary
cal ifornia
▁other û
▁sol itude
▁sol icitor
▁ww w
▁ny lon
▁firefight ing
▁blizz hero
▁prom ote
▁cover age
▁saf ari
▁press ed
▁stretcher bear
▁civil ization
sy stem
▁all in
▁all live
▁san it
▁mic om
▁mic rophone
▁dan isnot
▁lt lt
▁lt bgt
▁east ward
▁east bound
▁je ann
▁je alous
▁fox new
▁pret end
▁phil ip
▁phil adelphia
work s
▁q z
▁ol iver
▁flo at
▁daily kos
▁nw o
▁glo be
▁anth ony
▁alarm ed
▁claim ed
▁knock ing
ll l
sf or
▁so û
▁so aking
▁so ften
▁cor rel
▁cor leoned
▁public izing
▁la ois
▁la undry
▁aut ism
▁aut istic
▁aut obiography
▁est eem
▁russ ell
▁trust y
▁trust ing
▁flash back
▁contin ually
▁green way
▁green har
▁miner al
▁adv ice
▁adv ised
▁adv anced
▁motor craft
yy yy
▁son y
▁bill neelynbc
▁port ugal
▁mish acoll
▁fle eing
▁freak ing
▁law ton
▁law su
▁law rence
▁wow o
▁hero in
▁hero ine
▁nd a
▁det ouring
▁prev ention
▁seek er
▁total itarian
▁aftershock delo
▁david camer
▁å ç
▁å bn
▁comb ust
▁meek mill
▁dy e
▁dy stop
▁et isal
▁equ ate
▁equ ally
▁esc aped
▁esc aping
▁give away
▁poor ly
field s
gra ce
kn ight
▁cnn brk
▁tor rent
▁fem a
▁exc iting
▁exc itement
▁result ing
▁climate change
▁record ing
▁driver less
▁arsonist music
▁fukush imatepco
ael ite
▁squ irrel
▁canc elled
▁mine enjoy
▁four th
▁stra in
▁stra wberry
▁cons ent
▁cons ole
▁sport watch
▁box ing
ains aw
▁john ny
▁indian news
▁global warming
dp s
den ver
den ali
off man
off friends
▁ban erj
▁ban quet
▁mc f
▁mc mah
▁da is
eth reatening
▁polit ic
▁polit ifi
▁feat ured
▁teen ager
▁abs olute
▁abs urd
▁strong er
▁strong ly
▁strike sstrikes
▁british bakeoff
▁target ed
fer rell
sm atter
su ccess
▁bit coin
▁london fire
▁dev il
▁vis ibility
rib une
▁alb any
▁uncon scious
▁crack ing
▁differ ence
▁broad cast
▁respond ing
▁financ ing
▁info order
▁protect ing
▁protect ion
▁protect denali
▁question ing
iat v
la un
pol is
tw itter
▁and y
▁and û
▁and re
▁and or
▁and rew
▁and roid
▁ill ness
▁ill usion
▁sig ning
▁bb ct
▁bb cl
▁pri est
▁mi yagi
▁mult i
▁match ing
▁dist rict
▁dist inct
▁dream ing
▁worry ing
▁prod uc
▁prod uce
▁appro ves
▁appro val
▁close st
fro st
gu y
gu ard
more tweets
▁sam anthat
▁sam esex
rel ated
▁bre ed
▁bre ad
▁bre ach
▁bre athing
▁bas k
▁bas is
▁bas ically
▁pun ch
▁pun ished
▁pun jab
▁pun cture
▁pack age
▁double cup
▁vers ethe
▁throw back
▁oper a
▁los ange
▁los delsonido
▁travel ing
▁iû ad
▁jonathan ferrell
▁techn ica
▁general news
inc ol
▁tun ing
▁tun es
▁tim elap
▁tim kaine
▁hom s
▁hom ie
▁hom eland
▁hom etown
▁ak x
▁gold stein
▁rout ecom
▁living saf
▁yyc storm
▁ross um
▁turk men
▁strug gling
▁petition take
▁tre k
▁tre y
▁tre ated
▁tre ating
▁tre asure
▁pc p
▁pile up
▁wm v
▁wm ur
▁ham burg
▁non life
▁van uatu
▁van essa
▁kur t
▁yah istorical
▁alex and
▁alex bell
▁disapp eared
▁program me
▁imag ined
▁forg ive
▁price less
▁oklahoma ok
ki you
inst uart
inst agram
inst itute
▁sar cas
▁six met
▁six pence
res q
▁cow girl
▁cow boy
▁bank stown
▁mac ia
▁fuel ing
▁nav al
▁nick coc
▁stream ing
odd s
▁rid ing
▁rip ple
▁thr one
▁thr oughout
▁loved up
▁flor id
▁adm in
▁adm it
▁emp ire
▁common wealth
▁youû all
▁youû are
▁region al
▁euro tun
nam ent
uation s
ye ah
ines pn
▁batter ed
▁pap i
▁fra ck
▁fra gile
▁fort une
▁fort unately
▁fair y
▁fair fax
▁dar ryl
▁dar kest
▁lat in
▁wood lawn
▁esp n
▁jul iedicaro
▁shar ing
▁shut down
▁load ed
▁load ing
▁lock ed
▁lock smith
▁lose it
▁cook ing
▁env w
▁photogra ph
▁incre asing
▁perfect ly
bu ild
girl s
por ter
▁sid ing
▁mist ress
▁mist reated
▁lion el
▁hop ed
▁nas asolar
▁net anyahu
▁gam er
▁gam bit
▁ren ison
▁vac cine
▁chill ing
▁loc ated
▁compl ication
▁buff et
▁sweet young
▁delay ed
▁diam orfi
boy sh
▁organ ic
▁atl antic
▁electric ity
▁iraq i
▁debate quest
▁temper ature
▁protest ing
▁epicent er
bomb ed
cr anston
car ribean
min ate
nel son
sn ation
upp et
read ing
▁cir cus
▁cust er
▁batt ing
▁batt ler
▁tenn o
▁touch ed
▁fit z
▁dm pl
▁dom ain
▁dig ging
▁hy derabad
▁hy steria
▁gar field
▁rev olt
▁requ iring
▁them ed
▁them agick
▁lif estyle
▁lif ethreatening
▁jama icap
▁connect ion
▁rot ation
▁rot ator
▁rot ten
aven icet
▁ray ner
▁catch ing
▁incred ibly
▁corre spondent
▁approach ing
dd d
just instuart
po etry
tra ck
tra ffic
zz z
▁si bling
rey gid
▁bi ol
▁bat fan
▁tour nament
▁prison er
▁mis fit
▁fif a
▁fif ty
▁fell a
▁dry er
▁wis dom
▁would nûat
eng ine
▁has bro
▁ron nie
▁ron aldo
▁va ult
▁inn ovation
▁neg ro
▁neg ot
▁ker atin
▁challen ged
▁yell ing
▁jac qu
▁jac que
▁disrup tive
▁progress ive
▁cock pit
▁grand pa
▁vietnam ese
▁engine er
▁kidn ap
▁brazil ian
▁fresh man
▁announ ced
▁announ ces
▁autom ation
▁butter finger
▁florida û
care y
mal a
mal ik
inj a
inj ury
▁sac ramento
▁bal ance
▁ple asure
▁pump kin
▁mat ak
▁mont gom
▁mont etjw
▁dick head
▁les ley
▁lmfa oooo
▁nh l
▁norm an
▁reop en
▁reop ens
▁kiss ed
▁thet awniest
▁span iel
▁weak ness
▁weak ening
▁wealth y
▁scott walker
▁commer ce
▁prec ious
▁bob by
▁surround ing
▁abb ott
▁zion ism
▁appl ies
▁appl aud
▁mission hill
▁recomm ended
▁magn itude
▁assoc iation
▁intens ifies
▁cdc gov
▁newyork er
▁execut ing
dis aster
dis placed
hi jacker
mel ville
osh a
will iams
yt ube
▁ip od
▁ip ad
▁cbs big
▁bol t
▁bene ath
▁pos it
▁mut t
▁mut ant
▁mut ual
▁mour ns
▁mother nature
▁fur ious
▁dou chebag
▁dur ant
▁hip ster
▁hous ed
▁hyp ocris
▁ach imota
▁nj turn
▁nj enga
▁gain ing
▁gree k
▁resh ape
els am
▁kat ie
▁kat rina
▁kat unews
▁kas ab
▁chair man
▁jenn as
▁shell i
▁royal carribean
▁scar iest
▁bec learoncancer
▁heaven ly
▁josh ua
▁meg adeth
▁meg ynkelly
▁appreci ated
▁iron ic
▁iron ically
▁prim arily
▁aware ness
▁regard less
▁defend ant
▁lowly ing
▁sanction ed
▁fantastic four
▁priv acy
▁journal ism
▁jamaica obser
▁rapid city
▁yazid i
▁schedule û
dj j
dem i
dem olition
fre ed
erd utton
▁ct d
▁bil ly
▁bake offfriends
▁bull seye
▁pa id
▁pt bo
▁pen nington
▁mu fc
▁mart inm
▁mcc ain
▁merc ados
▁div ision
▁div ided
▁lay out
▁hack er
▁hann ah
▁hann emans
▁ghost writer
rail raod
▁stun s
▁stun ned
▁ri yadh
▁there al
▁ov o
▁ov ofest
▁liber al
▁chest tor
▁ju an
▁ju ice
▁jer sey
▁shout ing
▁prop osed
▁rayn or
▁whats app
▁calum et
▁attempt ing
▁zayn malik
▁desp air
▁deser ve
▁upgra de
▁upgra ding
▁upgra ded
▁reflect s
▁insp ired
▁insp iring
▁compet e
▁editor ial
▁histor ical
▁overt urn
▁assist ing
▁noah anyn
▁jones kyle
▁condem n
▁condem nation
▁torch ing
▁james melville
▁origin alfunko
▁europe an
▁demonst ration
▁ferguson ûas
fat al
law yer
mo vie
miss ion
oj ad
▁sail ing
▁sym phony
▁cad fyi
▁cand le
▁cert ified
▁bund le
▁bund led
▁tl c
▁tl vfac
▁tan zania
▁tum bling
▁tum blr
▁tune in
▁pin point
▁pul wama
▁push ing
▁penn y
▁mand atory
▁dl h
▁dope y
▁lam b
▁lam ha
▁ws j
▁horn y
▁hatchet wield
leg ion
▁ef ak
▁nike plus
▁rece ive
▁deck û
▁viv ian
▁thed aily
▁this izbw
▁thisis why
▁cher yl
▁cher okee
▁jump ed
▁shanta e
▁log istics
▁arg ument
▁sustain able
▁sustain ability
▁bright on
▁imm ig
▁greg ory
▁explo res
▁northwest ernû
▁perman ently
▁diffic ulty
▁orch ard
▁medic ine
▁slam med
▁casper rmg
▁cityof calgary
▁ell iott
▁partner ship
▁transf ormed
▁aggress ive
ovo a
▁retweet ed
▁soft ware
▁auto insurance
▁perform ing
▁perform ance
▁titan ic
www k
▁summ it
▁summ ary
▁architect ure
▁microsoft s
▁inevit ably
best s
born e
bach man
fact s
fox ysiren
iar am
mill ions
oz i
▁ou vind
▁ath lete
▁ident itythe
▁soo o
rec illa
▁cens us
▁cnews live
▁tt es
▁pound ed
▁pier c
arc ia
▁fad ing
▁dant e
▁lind en
▁wal ter
▁wal erga
▁watt pad
▁hid ing
▁hid den
▁nic ole
▁nos urrender
▁nost ril
▁nost algia
▁gp m
▁gall ipoli
rock s
ige on
odes eries
▁ven ice
▁kot aweather
▁kenn eth
▁kinder morgan
▁thirst y
▁opt im
▁youn ger
▁sheer an
▁sequ el
uls ive
▁exerc ise
▁exerc ised
▁conser vative
▁spread ing
▁disp atch
ryl antiqu
▁beck arn
▁clue less
▁que ens
▁whit ew
▁whit bour
aneous ly
gener ational
▁ush ed
▁ush anka
▁abus ing
▁abus eddesolate
▁redeem eth
▁zar ry
▁zim babwe
▁mechan ical
▁swe ater
▁grande ur
▁remo ving
▁remo ved
▁keith yy
▁sinc erely
▁acqu ire
▁monitor ing
▁committ ed
▁committ ee
▁its justinstuart
▁affil iation
▁affil iate
▁improve ment
▁motiv ation
▁underground railraod
▁hahahah a
▁michele bachman
▁billion aire
▁premier e
▁alleg ation
▁alleg iance
▁discuss ion
▁atmosp here
▁atmosp heric
▁growingup black
fle x
fort able
jap an
mis chief
mart in
past orngang
want ed
▁ow en
▁syn drome
▁cri ppling
▁cyp rus
▁bm w
▁bub ble
▁brew ing
▁tes la
▁tort ure
▁pj net
▁pir ate
▁patt onos
▁piss ed
▁mch enry
▁mir ror
▁muzz amil
▁fer rell
▁fab ric
▁fier ce
▁fouse ytube
▁ded icated
▁dun bar
▁dak ota
▁lic ense
▁loll apal
▁wra pped
▁hoc key
▁herman cranston
▁nank ana
▁noooo oooo
▁reck less
▁revel ation
aci ouss
▁defe at
▁rit ual
▁vod s
▁vist o
imin ate
▁kel by
▁kod iak
▁kend all
▁thug gin
▁ooooo ohhhh
▁osb orn
▁jen ner
▁exclus ive
▁exhib ition
▁exhaust ed
terror ism
▁trav elling
▁concl uded
▁aria ahrary
▁plummet ed
▁spect acular
▁gok u
▁trou bling
▁pros yn
▁wey reygid
▁weigh s
▁evol ve
▁beg ging
▁ûit ûas
▁unc ertain
▁unpre cedented
▁pred ator
▁who a
▁polic erun
▁phar aoh
▁phant om
▁phill ip
▁brig ade
▁famil ia
▁imper fect
▁import ant
▁marque i
▁twent ynine
▁zipped news
▁guate mala
▁hearth stone
▁advert ised
▁grid lock
▁dies is
▁dijk ûa
▁playth ursdays
▁okinaw a
▁appoint ment
▁mississ auga
▁obs essed
▁kee gan
▁elk horn
▁refuge es
▁drift ing
▁collect ive
▁they re
▁trium ph
▁mete oear
▁beth lehem
▁southdown s
▁princ iple
osex uality
▁ones elf
▁grave yard
▁salvad oran
▁starb ucks
▁teamh endrick
▁frees peech
▁iceland review
▁overlook ing
▁popul armmos
market ing
▁testim ony
▁techni que
▁oliv ia
▁socialmed ia
▁maint ain
▁squee ze
▁budd ha
▁multidim ensi
▁distrib uted
▁appropri ation
▁samarit ansûa
▁punish ment
▁profession al
▁cowork er
▁administ ration
cius ko
▁renew health
▁jewel ry
▁unfort unately
▁unfold ed
▁astrolo gy
hazard ous
▁ethiop ian
▁contribut ing
▁hurricaned olce
▁diplom acy
▁bradley brad
▁bernard ino
▁strength ening
clo se
dream er
dram odi
jew els
mbal s
sur viv
wom an
wel ch
wec anth
▁ia ff
▁ome ga
▁ired ell
▁ivan berroa
▁sedu ction
▁croy don
▁celt ic
▁csp an
▁cjoy ner
▁bast ard
▁bist ro
▁bie ber
▁bice p
▁banc odeseries
▁tol er
▁tas mania
▁toky o
atul ip
▁por ridge
▁pion eer
▁pend leton
▁piv ot
▁mam ata
▁mast urb
▁mare k
▁muk ilte
▁mmm mmm
▁maf ia
▁msm ig
▁msn bc
▁mì1⁄4 sica
▁few moretweets
▁fts n
▁faul ty
▁dia blo
▁dign ity
▁doth raki
▁lans downe
▁lope z
▁lanc aster
▁linds ay
▁liner less
▁lucha underground
▁lubb ock
▁wes ley
▁wack o
▁woc owae
▁wft v
▁wilsh ere
engl ish
▁have û
▁hool igan
▁auck land
▁aog ashima
▁aquar ium
▁eud rylantiqu
▁ether eal
▁noon ancindyn
▁nyp d
▁nts b
▁naren dramodi
▁gaw x
▁goul burn
▁gmm bc
▁gett in
▁reinst ate
omrad fm
ionsw ewantto
▁stag etwo
▁deact iv
▁rue bs
▁rsp ca
▁rih anna
▁vab engal
▁vash on
▁vgboot camp
▁kos ciusko
▁kather ines
▁kany e
▁thyro id
▁livel ihood
▁livest ream
▁chron icle
▁chattan ooga
thomp son
▁youg ov
▁ypre s
▁jage x
▁jana q
▁jhaust in
▁shiz une
antib atam
▁ameen shai
▁newzs acramento
▁loret ta
▁locom otive
▁exter minate
▁exting uished
▁exacerb ated
▁anell atulip
▁firetr uck
▁leban on
▁pllol z
▁spont aneously
▁gofund me
▁truel ove
▁tricia oneill
▁rohn ertpark
▁rahe el
▁ramm ed
▁raì1⁄4 l
▁manuf actured
▁weallhearton edirection
▁cosp onsor
▁coinc ide
▁coahu ila
▁evans ville
▁ûåê demolition
▁ûface less
▁unrel enting
▁unnec essary
▁premon ition
▁bobc at
▁newsgold coast
▁whene ver
▁attract ive
▁offram p
▁surger y
▁suryar ay
▁carib bean
▁videoveranom tv
▁moham med
▁moores ville
▁fevwar rior
▁fatbur ning
▁twove hicle
▁bodybag ging
▁destruct ive
▁fatalities x
ucleard eal
oonanheart break
▁minhaz merchant
▁zabad ani
▁guarant eed
▁hearitfro mp
▁meinlcy mbals
▁massmur derer
▁suicidebomb ing
▁letsf ootball
▁indiff erence
▁screamque ens
▁dambis a
▁legisl ation
▁diarr hea
▁schwar ber
▁murfre esboro
▁insomn ia
▁insubcont inent
▁milwau kee
▁xox o
▁obvious ly
▁asyl um
▁ruther ford
▁cheyen ne
▁chevro let
▁headquarter s
scrim s
▁endanger ed
▁skanndty agi
▁curios ity
▁notexpl ained
▁engva us
▁greatbritish bakeoff
▁ûïstret cher
▁theadvocate mag
▁acdel co
▁acquis ition
▁infose c
▁nightmar ish
▁standwith pp
▁tomcat arts
▁glimp se
▁glouce ster
▁volunte er
▁holmg ren
▁entrepren eur
▁rockbott omradfm
▁lightningca used
▁genev a
▁artific ial
▁wordpress dotcom
▁myfitness pal
▁lavender poetry
▁rdhorn dale
▁justmar ried
▁riversis kiyou
▁tsunamies h
▁peterj ukes
▁volcanoåêinåê russia
▁camilac abello
▁bluepr int
▁tweetlike itssept
▁geomet ric
▁jonvoy age
▁blizzhero es
▁alllive smatter
▁danisnot onfire
▁foxnew û
▁soften za
▁corleoned aboss
▁esteem ed
▁greenhar vard
▁mishacoll ins
▁lawsu it
▁davidcamer on
▁dystop ian
▁etisal at
▁banerj ee
▁mcmah on
▁politifi act
▁protectdenali wolves
▁samanthat urne
▁doublecup s
▁timelap se
▁routecom plex
▁livingsaf ely
▁alexbell oli
▁sarcas m
▁sixmet er
▁sixpence ee
▁nickcoc ofree
▁eurotun nel
▁nasasolar system
▁diamorfi end
▁debatequest ionswewantto
▁themagick idraps
▁jamaicap lain
avenicet hings
▁batfan uk
▁montgom ery
▁montetjw itter
▁missionhill s
▁cbsbig brother
▁hypocris y
▁njturn pike
▁jamaicaobser ver
▁martinm j
▁chesttor so
▁noahanyn ame
▁tlvfac es
▁hatchetwield ing
▁thisizbw right
▁thisiswhy wecanth
▁ouvind o
▁identitythe ft
▁beckarn ley
▁whitbour ne
▁abuseddesolate amplost
pastorngang a
▁pattonos walt
▁lollapal ooza
▁weyreygid i
▁meteoear th
▁mukilte o
▁eudrylantiqu a
▁noonancindyn oonanheartbreak
▁ameenshai kh
▁rohnertpark dps
▁lavenderpoetry cafe
▁tweetlikeitssept emberth
▁debatequestionswewantto hear
▁thisiswhywecanth avenicethings
