{"<pad>":0,"<s>":1,"</s>":2,"<unk>":3,"<mask>":4,"1":5,"4":6,"a":7,"b":8,"c":9,"d":10,"e":11,"f":12,"g":13,"h":14,"i":15,"j":16,"k":17,"l":18,"m":19,"n":20,"o":21,"p":22,"q":23,"r":24,"s":25,"t":26,"u":27,"v":28,"w":29,"x":30,"y":31,"z":32,"â":33,"ã":34,"å":35,"ç":36,"è":37,"ê":38,"ì":39,"ï":40,"ñ":41,"ò":42,"ó":43,"û":44,"ü":45,"⁄":46,"▁":47,"in":48,"▁s":49,"er":50,"re":51,"▁c":52,"an":53,"on":54,"▁b":55,"ed":56,"▁t":57,"at":58,"▁p":59,"▁m":60,"ar":61,"▁f":62,"▁d":63,"ing":64,"al":65,"st":66,"▁l":67,"or":68,"▁w":69,"en":70,"▁h":71,"▁a":72,"ic":73,"le":74,"it":75,"ou":76,"▁e":77,"▁n":78,"il":79,"▁g":80,"ro":81,"is":82,"ol":83,"▁re":84,"ra":85,"om":86,"el":87,"am":88,"id":89,"ion":90,"ac":91,"ay":92,"ot":93,"ur":94,"ke":95,"▁st":96,"▁de":97,"un":98,"ig":99,"od":100,"as":101,"ad":102,"ve":103,"ent":104,"▁r":105,"us":106,"ow":107,"et":108,"▁v":109,"im":110,"ch":111,"▁in":112,"es":113,"▁ne":114,"▁k":115,"▁th":116,"ir":117,"ag":118,"▁o":119,"ire":120,"ct":121,"ly":122,"▁li":123,"ver":124,"ht":125,"ck":126,"ast":127,"op":128,"▁ch":129,"th":130,"ap":131,"and":132,"▁y":133,"▁j":134,"lo":135,"ia":136,"ate":137,"ide":138,"se":139,"ack":140,"▁sh":141,"ut":142,"ation":143,"▁se":144,"ri":145,"ul":146,"um":147,"em":148,"ff":149,"oun":150,"ight":151,"ant":152,"ce":153,"ill":154,"▁am":155,"sh":156,"ear":157,"est":158,"▁new":159,"▁lo":160,"ist":161,"orm":162,"ak":163,"ss":164,"▁ex":165,"all":166,"der":167,"▁an":168,"qu":169,"ter":170,"▁tra":171,"one":172,"ie":173,"ug":174,"▁con":175,"▁fire":176,"▁ar":177,"ake":178,"▁bl":179,"▁su":180,"▁al":181,"ab":182,"▁le":183,"ice":184,"▁wor":185,"▁pl":186,"ity":187,"ip":188,"▁sp":189,"ild":190,"ning":191,"ome":192,"ine":193,"are":194,"omb":195,"att":196,"▁dis":197,"oll":198,"▁like":199,"out":200,"▁go":201,"if":202,"age":203,"▁tr":204,"ail":205,"▁ro":206,"her":207,"ort":208,"ect":209,"ated":210,"ound":211,"ard":212,"pl":213,"av":214,"ell":215,"▁amp":216,"▁pro":217,"ok":218,"▁ra":219,"ind":220,"ph":221,"ian":222,"▁bomb":223,"ust":224,"ink":225,"ge":226,"mer":227,"end":228,"▁man":229,"ally":230,"ew":231,"ive":232,"ub":233,"ud":234,"ure":235,"▁we":236,"▁co":237,"lood":238,"iv":239,"▁ev":240,"ry":241,"▁sc":242,"▁sa":243,"▁be":244,"pp":245,"▁pe":246,"▁com":247,"row":248,"▁res":249,"az":250,"▁û":251,"▁un":252,"ick":253,"art":254,"▁fo":255,"own":256,"▁pre":257,"ann":258,"ue":259,"▁coll":260,"▁he":261,"ess":262,"ass":263,"storm":264,"▁is":265,"▁cra":266,"ah":267,"ish":268,"▁bo":269,"ime":270,"cc":271,"cy":272,"ty":273,"ain":274,"ble":275,"uck":276,"▁fl":277,"our":278,"▁via":279,"▁ever":280,"ame":281,"ary":282,"orn":283,"▁news":284,"up":285,"os":286,"▁cl":287,"ong":288,"▁hi":289,"ous":290,"ment":291,"▁qu":292,"ath":293,"ost":294,"▁war":295,"ror":296,"▁bur":297,"▁wh":298,"ople":299,"ber":300,"▁bu":301,"per":302,"▁cal":303,"▁wat":304,"▁pol":305,"▁people":306,"old":307,"ton":308,"cl":309,"ial":310,"▁ph":311,"▁kill":312,"▁att":313,"▁kn":314,"ase":315,"oug":316,"▁off":317,"aster":318,"ane":319,"gen":320,"ite":321,"▁en":322,"ang":323,"▁br":324,"ace":325,"ideo":326,"na":327,"bl":328,"▁fam":329,"reak":330,"ody":331,"▁sur":332,"▁car":333,"ance":334,"oc":335,"▁video":336,"▁us":337,"▁ca":338,"▁year":339,"iz":340,"son":341,"▁cr":342,"▁time":343,"ree":344,"port":345,"error":346,"ond":347,"▁mo":348,"▁flood":349,"ee":350,"ld":351,"▁im":352,"▁crash":353,"fe":354,"▁emer":355,"▁fe":356,"▁fat":357,"gency":358,"ream":359,"ction":360,"▁disaster":361,"▁te":362,"▁every":363,"ory":364,"ens":365,"▁emergency":366,"▁mar":367,"▁tw":368,"ily":369,"▁attack":370,"▁home":371,"▁air":372,"amp":373,"▁build":374,"iot":375,"▁sm":376,"▁body":377,"ident":378,"▁see":379,"oo":380,"▁acc":381,"iter":382,"▁inj":383,"ep":384,"▁dest":385,"▁hel":386,"ush":387,"fire":388,"way":389,"▁ser":390,"▁ab":391,"ism":392,"▁cont":393,"▁may":394,"▁day":395,"ash":396,"og":397,"▁say":398,"▁look":399,"reck":400,"▁red":401,"▁wreck":402,"▁police":403,"▁building":404,"▁fatal":405,"▁dr":406,"▁jo":407,"uc":408,"▁back":409,"ull":410,"und":411,"ole":412,"▁wild":413,"▁world":414,"ave":415,"ank":416,"▁tod":417,"act":418,"▁dem":419,"ned":420,"▁gre":421,"ews":422,"▁evac":423,"▁family":424,"▁storm":425,"▁life":426,"oon":427,"▁min":428,"▁exp":429,"▁surv":430,"▁evacu":431,"▁z":432,"iss":433,"▁train":434,"▁calif":435,"ely":436,"ru":437,"▁ear":438,"▁arm":439,"ft":440,"▁der":441,"▁know":442,"▁po":443,"▁ap":444,"app":445,"▁gu":446,"ornia":447,"ern":448,"ont":449,"▁hear":450,"icide":451,"▁resc":452,"▁watch":453,"sl":454,"▁me":455,"▁mass":456,"▁des":457,"▁california":458,"▁out":459,"▁sw":460,"▁bag":461,"▁ad":462,"▁suicide":463,"▁burning":464,"ual":465,"irst":466,"ought":467,"io":468,"▁let":469,"▁want":470,"lear":471,"▁ind":472,"▁work":473,"orth":474,"▁scream":475,"▁collap":476,"ni":477,"ric":478,"▁rt":479,"ima":480,"red":481,"ence":482,"ach":483,"▁death":484,"▁derail":485,"ers":486,"itt":487,"▁em":488,"▁ele":489,"other":490,"irl":491,"▁wind":492,"ition":493,"ount":494,"▁dead":495,"pt":496,"▁cat":497,"▁dam":498,"ama":499,"▁love":500,"ube":501,"▁pm":502,"▁first":503,"ord":504,"roy":505,"news":506,"▁gr":507,"under":508,"arm":509,"▁del":510,"▁north":511,"aw":512,"co":513,"ock":514,"ury":515,"ign":516,"▁leg":517,"ile":518,"▁sou":519,"▁near":520,"▁think":521,"▁today":522,"▁up":523,"▁best":524,"▁per":525,"▁di":526,"▁inter":527,"▁caus":528,"uclear":529,"bo":530,"ged":531,"ather":532,"▁make":533,"▁land":534,"ical":535,"ade":536,"▁need":537,"▁thunder":538,"ium":539,"rest":540,"▁cann":541,"▁nuclear":542,"land":543,"ris":544,"▁light":545,"ith":546,"▁char":547,"ute":548,"▁terror":549,"▁drow":550,"ict":551,"▁rem":552,"▁play":553,"ec":554,"man":555,"ket":556,"igh":557,"ple":558,"ren":559,"▁wom":560,"▁offic":561,"▁accident":562,"▁cannot":563,"ger":564,"ress":565,"▁fuck":566,"alk":567,"ower":568,"▁yout":569,"▁expl":570,"▁killed":571,"▁destroy":572,"▁youtube":573,"oke":574,"▁read":575,"▁deton":576,"▁good":577,"ected":578,"▁feel":579,"jack":580,"▁bus":581,"▁ok":582,"▁sec":583,"vie":584,"▁sch":585,"▁full":586,"▁hor":587,"rosh":588,"▁rain":589,"▁demol":590,"▁bro":591,"▁big":592,"▁ref":593,"▁obl":594,"▁hirosh":595,"ood":596,"▁or":597,"▁pan":598,"▁way":599,"▁hijack":600,"▁at":601,"▁blood":602,"▁take":603,"▁mur":604,"▁ins":605,"apon":606,"▁serv":607,"▁woman":608,"▁hiroshima":609,"▁sink":610,"ans":611,"▁tur":612,"▁obliter":613,"day":614,"ving":615,"▁ble":616,"▁af":617,"▁app":618,"lease":619,"▁run":620,"▁anni":621,"▁help":622,"ix":623,"ool":624,"▁mil":625,"ural":626,"irm":627,"▁weapon":628,"▁surviv":629,"▁miss":630,"▁last":631,"▁act":632,"ross":633,"ope":634,"▁murder":635,"ne":636,"▁x":637,"▁fr":638,"▁wound":639,"▁plan":640,"▁ty":641,"▁med":642,"▁happ":643,"▁injury":644,"ek":645,"vel":646,"xt":647,"ange":648,"▁report":649,"▁ob":650,"los":651,"▁even":652,"▁phot":653,"▁elect":654,"ier":655,"▁conf":656,"▁many":657,"be":658,"vast":659,"▁sl":660,"ark":661,"ise":662,"▁rec":663,"able":664,"▁resp":665,"▁wildfire":666,"hing":667,"ore":668,"▁ke":669,"int":670,"▁host":671,"ode":672,"▁service":673,"by":674,"dit":675,"▁i":676,"roph":677,"▁jap":678,"break":679,"ûas":680,"ale":681,"▁hot":682,"▁as":683,"ouse":684,"▁real":685,"▁right":686,"▁riot":687,"▁thank":688,"▁black":689,"▁quar":690,"▁rescu":691,"▁collapse":692,"uch":693,"▁ir":694,"▁sn":695,"▁for":696,"▁long":697,"▁haz":698,"▁ey":699,"▁water":700,"▁call":701,"ness":702,"of":703,"omic":704,"ared":705,"▁bombing":706,"slide":707,"he":708,"▁set":709,"▁cas":710,"▁lol":711,"unk":712,"vest":713,"▁ru":714,"▁che":715,"▁head":716,"▁milit":717,"▁hazard":718,"▁u":719,"▁cre":720,"▁city":721,"anc":722,"▁mus":723,"▁fall":724,"ott":725,"ult":726,"▁any":727,"▁come":728,"ator":729,"▁mh":730,"▁fin":731,"▁late":732,"ister":733,"▁traum":734,"▁japan":735,"air":736,"ret":737,"▁el":738,"▁thing":739,"▁fatality":740,"▁hostage":741,"▁quarant":742,"ex":743,"iver":744,"ious":745,"sc":746,"eric":747,"▁live":748,"astroph":749,"ured":750,"▁army":751,"▁catastroph":752,"go":753,"sia":754,"▁end":755,"▁sk":756,"▁break":757,"▁part":758,"▁god":759,"roc":760,"▁really":761,"▁str":762,"ember":763,"▁earth":764,"▁school":765,"▁refug":766,"▁photo":767,"aug":768,"▁cur":769,"▁please":770,"▁dri":771,"▁wr":772,"▁nat":773,"▁deb":774,"▁vi":775,"▁comp":776,"▁crush":777,"▁av":778,"▁stop":779,"▁another":780,"▁sin":781,"▁col":782,"▁fear":783,"▁hail":784,"oud":785,"▁not":786,"▁state":787,"▁start":788,"ado":789,"ady":790,"▁forest":791,"▁legion":792,"ful":793,"yp":794,"▁ed":795,"onder":796,"ich":797,"▁invest":798,"attle":799,"▁eng":800,"▁great":801,"ert":802,"▁post":803,"▁mal":804,"▁fun":805,"▁ûï":806,"ualty":807,"edd":808,"▁high":809,"▁house":810,"ley":811,"ased":812,"▁never":813,"▁the":814,"ummer":815,"▁northern":816,"con":817,"▁much":818,"▁hit":819,"▁hur":820,"▁ac":821,"ision":822,"▁inf":823,"▁show":824,"▁reddit":825,"▁demolish":826,"▁confirm":827,"▁legionna":828,"ai":829,"ging":830,"line":831,"ina":832,"▁cross":833,"▁tri":834,"▁met":835,"ened":836,"▁delug":837,"▁latest":838,"▁legionnaire":839,"eet":840,"▁old":841,"▁cent":842,"▁cap":843,"▁care":844,"▁top":845,"arch":846,"▁with":847,"▁hope":848,"▁gun":849,"idge":850,"iren":851,"▁lik":852,"▁bomber":853,"ioterror":854,"▁obama":855,"▁electroc":856,"ax":857,"ga":858,"so":859,"ying":860,"åê":861,"▁ve":862,"▁tot":863,"▁pra":864,"▁mon":865,"▁girl":866,"elt":867,"usp":868,"▁americ":869,"aking":870,"▁cause":871,"▁casualty":872,"▁investig":873,"gin":874,"ies":875,"ined":876,"▁some":877,"▁bar":878,"▁pick":879,"ork":880,"▁hell":881,"▁aug":882,"▁eb":883,"ided":884,"▁shit":885,"riend":886,"▁week":887,"▁boy":888,"▁damage":889,"bc":890,"oot":891,"▁bioterror":892,"▁wave":893,"less":894,"▁night":895,"▁rep":896,"rist":897,"allow":898,"▁iss":899,"▁atomic":900,"▁malay":901,"down":902,"ner":903,"▁siren":904,"▁bet":905,"ating":906,"▁hand":907,"▁gt":908,"▁op":909,"▁child":910,"aze":911,"▁flame":912,"ough":913,"▁typh":914,"get":915,"ible":916,"yc":917,"▁som":918,"▁sound":919,"▁ton":920,"▁free":921,"▁dra":922,"▁are":923,"▁game":924,"elf":925,"▁change":926,"que":927,"▁truck":928,"▁said":929,"pped":930,"anger":931,"▁desol":932,"▁thunderstorm":933,"hil":934,"nt":935,"▁susp":936,"▁bad":937,"▁foll":938,"▁fail":939,"▁face":940,"▁wa":941,"▁ep":942,"▁ste":943,"▁stand":944,"ason":945,"▁oil":946,"▁sever":947,"quake":948,"▁weather":949,"▁upd":950,"▁summer":951,"atch":952,"▁fight":953,"▁devast":954,"▁kid":955,"▁content":956,"▁official":957,"▁annihil":958,"iel":959,"sp":960,"te":961,"ved":962,"iness":963,"reat":964,"▁coun":965,"ater":966,"▁found":967,"alth":968,"▁decl":969,"ational":970,"▁comm":971,"▁coming":972,"ruct":973,"▁south":974,"ler":975,"ob":976,"rant":977,"▁pr":978,"ening":979,"▁hum":980,"vern":981,"▁warning":982,"▁movie":983,"▁everyone":984,"▁injured":985,"▁military":986,"▁earthquake":987,"▁since":988,"aa":989,"me":990,"▁ur":991,"▁tom":992,"ille":993,"▁gl":994,"▁arson":995,"▁food":996,"▁evacuation":997,"ittle":998,"▁check":999,"gt":1000,"ii":1001,"ose":1002,"ting":1003,"ycl":1004,"▁it":1005,"▁sand":1006,"▁battle":1007,"▁put":1008,"▁mom":1009,"▁nig":1010,"rol":1011,"ised":1012,"▁vol":1013,"▁next":1014,"istan":1015,"▁intern":1016,"▁keep":1017,"▁without":1018,"▁malaysia":1019,"▁bel":1020,"▁power":1021,"▁mig":1022,"▁mad":1023,"▁little":1024,"▁well":1025,"▁hol":1026,"▁aw":1027,"ouble":1028,"▁eff":1029,"▁story":1030,"▁list":1031,"thing":1032,"aby":1033,"▁flooding":1034,"▁smoke":1035,"ways":1036,"▁explos":1037,"▁debris":1038,"▁area":1039,"iff":1040,"ience":1041,"▁ent":1042,"▁sign":1043,"▁can":1044,"▁pak":1045,"▁mod":1046,"▁fan":1047,"icle":1048,"aced":1049,"▁struct":1050,"uss":1051,"vers":1052,"ipp":1053,"▁spec":1054,"▁road":1055,"▁rock":1056,"ocal":1057,"▁lightning":1058,"▁wounded":1059,"▁viol":1060,"▁update":1061,"aj":1062,"ys":1063,"ûa":1064,"▁bra":1065,"▁blo":1066,"▁mem":1067,"▁danger":1068,"▁west":1069,"▁aff":1070,"ited":1071,"itter":1072,"▁gon":1073,"▁gen":1074,"▁inc":1075,"esh":1076,"▁oh":1077,"ffic":1078,"▁art":1079,"▁govern":1080,"▁trans":1081,"ude":1082,"▁job":1083,"ruction":1084,"▁guy":1085,"▁heart":1086,"▁terrorist":1087,"▁somet":1088,"▁migrant":1089,"ym":1090,"▁on":1091,"▁self":1092,"▁pat":1093,"▁sub":1094,"ubl":1095,"▁whole":1096,"ricane":1097,"▁sinking":1098,"▁breaking":1099,"▁natural":1100,"▁confirmed":1101,"▁severe":1102,"▁explosion":1103,"br":1104,"ied":1105,"uk":1106,"uth":1107,"ually":1108,"▁ut":1109,"▁down":1110,"alf":1111,"▁lot":1112,"▁gra":1113,"rael":1114,"▁inst":1115,"ship":1116,"▁supp":1117,"▁always":1118,"▁save":1119,"▁heat":1120,"▁israel":1121,"▁market":1122,"▁fucking":1123,"▁refugee":1124,"bul":1125,"ma":1126,"ral":1127,"▁id":1128,"▁sal":1129,"▁bang":1130,"▁par":1131,"▁friend":1132,"▁loud":1133,"ami":1134,"▁inv":1135,"uted":1136,"▁spill":1137,"▁bridge":1138,"▁snow":1139,"▁follow":1140,"can":1141,"lam":1142,"▁baby":1143,"▁tem":1144,"▁harm":1145,"▁rele":1146,"ram":1147,"▁star":1148,"imate":1149,"▁inund":1150,"▁christ":1151,"▁you":1152,"▁exper":1153,"▁also":1154,"▁rad":1155,"▁cost":1156,"rown":1157,"▁person":1158,"▁bloody":1159,"▁liked":1160,"▁someone":1161,"hole":1162,"ik":1163,"erm":1164,"▁mount":1165,"▁made":1166,"▁do":1167,"▁dust":1168,"▁hour":1169,"oul":1170,"oup":1171,"▁reg":1172,"▁rel":1173,"ape":1174,"▁shot":1175,"▁lead":1176,"udi":1177,"azing":1178,"▁evacuate":1179,"▁screaming":1180,"▁business":1181,"▁missing":1182,"▁iran":1183,"▁eye":1184,"▁tonight":1185,"▁failure":1186,"▁gonna":1187,"gan":1188,"ike":1189,"ling":1190,"ring":1191,"sa":1192,"sed":1193,"sun":1194,"zed":1195,"▁sav":1196,"▁cour":1197,"▁cycl":1198,"▁link":1199,"orrow":1200,"▁win":1201,"enn":1202,"▁ag":1203,"itness":1204,"ote":1205,"▁china":1206,"▁yr":1207,"rible":1208,"ump":1209,"emon":1210,"▁ambul":1211,"▁trapped":1212,"▁word":1213,"▁displ":1214,"▁saudi":1215,"▁ûò":1216,"▁collided":1217,"▁book":1218,"ornado":1219,"▁imp":1220,"▁drought":1221,"▁minute":1222,"▁outbreak":1223,"▁panic":1224,"▁survivor":1225,"▁ruin":1226,"▁hurricane":1227,"▁ambulance":1228,"cra":1229,"com":1230,"ov":1231,"wind":1232,"▁cop":1233,"▁my":1234,"▁fed":1235,"▁stock":1236,"▁rub":1237,"▁collision":1238,"▁islam":1239,"▁phone":1240,"▁team":1241,"▁attacked":1242,"▁wreckage":1243,"▁survive":1244,"▁rescue":1245,"▁derailment":1246,"▁remember":1247,"▁sinkhole":1248,"▁released":1249,"ib":1250,"ient":1251,"▁camp":1252,"eding":1253,"▁tren":1254,"ata":1255,"▁past":1256,"▁mid":1257,"▁mud":1258,"▁mos":1259,"▁far":1260,"ster":1261,"itch":1262,"▁dep":1263,"union":1264,"ulf":1265,"▁around":1266,"anna":1267,"▁island":1268,"izz":1269,"▁apocal":1270,"▁charged":1271,"▁explode":1272,"▁destroyed":1273,"▁rescued":1274,"▁issue":1275,"▁county":1276,"ublic":1277,"au":1278,"fl":1279,"ts":1280,"uff":1281,"ville":1282,"wood":1283,"yn":1284,"▁send":1285,"▁fav":1286,"▁hund":1287,"▁half":1288,"▁dec":1289,"agedd":1290,"hter":1291,"▁chem":1292,"▁sure":1293,"▁super":1294,"plane":1295,"▁burned":1296,"▁white":1297,"▁twister":1298,"oooo":1299,"▁destruction":1300,"▁wrecked":1301,"▁add":1302,"▁group":1303,"▁landslide":1304,"▁explod":1305,"▁survived":1306,"▁rescuer":1307,"▁trauma":1308,"▁pakistan":1309,"craft":1310,"▁hundred":1311,"ageddon":1312,"ij":1313,"▁came":1314,"▁to":1315,"▁talk":1316,"▁tornado":1317,"▁mor":1318,"▁mot":1319,"▁melt":1320,"▁lab":1321,"▁lav":1322,"ene":1323,"▁har":1324,"▁away":1325,"▁ret":1326,"acre":1327,"key":1328,"▁ang":1329,"▁boat":1330,"▁poss":1331,"▁terrorism":1332,"▁officer":1333,"view":1334,"▁order":1335,"▁thanks":1336,"▁catastrophe":1337,"▁wait":1338,"▁violent":1339,"few":1340,"gary":1341,"kk":1342,"ya":1343,"▁sunk":1344,"▁must":1345,"▁hun":1346,"▁deal":1347,"▁vict":1348,"che":1349,"▁thought":1350,"▁shoot":1351,"▁cool":1352,"▁bea":1353,"▁cliff":1354,"▁whirl":1355,"ensive":1356,"▁airplane":1357,"▁abc":1358,"▁armageddon":1359,"▁massacre":1360,"▁collapsed":1361,"▁windstorm":1362,"gedy":1363,"▁music":1364,"▁quarantine":1365,"▁curfew":1366,"▁engulf":1367,"▁deluge":1368,"▁investigator":1369,"▁suspect":1370,"ield":1371,"▁sandstorm":1372,"▁volcan":1373,"▁belie":1374,"▁effect":1375,"▁structural":1376,"▁mudslide":1377,"▁whirlwind":1378,"bal":1379,"eav":1380,"gr":1381,"hh":1382,"iant":1383,"ny":1384,"we":1385,"▁sy":1386,"▁sen":1387,"▁song":1388,"▁soon":1389,"▁tell":1390,"atised":1391,"▁hard":1392,"▁aust":1393,"▁national":1394,"urs":1395,"▁def":1396,"▁rd":1397,"imal":1398,"▁ye":1399,"▁just":1400,"▁ship":1401,"▁search":1402,"ffer":1403,"▁ext":1404,"▁tragedy":1405,"▁blast":1406,"▁least":1407,"ares":1408,"▁dise":1409,"▁bombed":1410,"▁saw":1411,"▁foot":1412,"▁pres":1413,"anned":1414,"▁crashed":1415,"▁screamed":1416,"▁drowning":1417,"▁second":1418,"▁rioting":1419,"▁quarantined":1420,"ypse":1421,"▁august":1422,"▁better":1423,"▁devastation":1424,"▁displaced":1425,"▁chemical":1426,"▁engulfed":1427,"del":1428,"jo":1429,"wh":1430,"▁om":1431,"▁sat":1432,"▁sil":1433,"▁soc":1434,"atter":1435,"▁pal":1436,"▁pic":1437,"▁pand":1438,"▁pass":1439,"▁men":1440,"▁fre":1441,"▁don":1442,"▁wanna":1443,"ider":1444,"▁river":1445,"imes":1446,"▁plane":1447,"avy":1448,"▁under":1449,"icking":1450,"▁famine":1451,"▁heard":1452,"cover":1453,"▁drown":1454,"▁horrible":1455,"▁bleeding":1456,"▁after":1457,"▁annivers":1458,"▁hazardous":1459,"▁traumatised":1460,"aughter":1461,"▁desolation":1462,"▁tomorrow":1463,"▁inundated":1464,"▁mosque":1465,"▁apocalypse":1466,"▁exploded":1467,"▁anniversary":1468,"bag":1469,"ball":1470,"come":1471,"pe":1472,"▁sun":1473,"reet":1474,"▁cle":1475,"▁count":1476,"▁tsun":1477,"▁pet":1478,"▁dire":1479,"▁lady":1480,"icy":1481,"▁react":1482,"▁stay":1483,"▁street":1484,"ety":1485,"the":1486,"ther":1487,"▁blown":1488,"▁left":1489,"attened":1490,"▁trouble":1491,"▁proj":1492,"▁collide":1493,"▁health":1494,"▁calgary":1495,"▁twitter":1496,"▁derailed":1497,"▁detonate":1498,"▁blew":1499,"ney":1500,"▁ask":1501,"▁catastrophic":1502,"▁electrocuted":1503,"▁human":1504,"oulder":1505,"emonium":1506,"▁fedex":1507,"▁lava":1508,"▁beaut":1509,"▁volcano":1510,"bab":1511,"lin":1512,"lier":1513,"nn":1514,"▁bc":1515,"ors":1516,"▁went":1517,"▁walk":1518,"▁hist":1519,"olog":1520,"▁reunion":1521,"ese":1522,"▁threat":1523,"▁shoulder":1524,"▁prot":1525,"▁razed":1526,"▁prep":1527,"▁isi":1528,"▁flattened":1529,"clus":1530,"▁move":1531,"▁mark":1532,"▁evacuated":1533,"▁zone":1534,"▁mean":1535,"▁swallow":1536,"▁india":1537,"▁panicking":1538,"▁insur":1539,"▁responder":1540,"▁ebay":1541,"▁typhoon":1542,"▁affected":1543,"▁government":1544,"▁something":1545,"▁meltdown":1546,"fight":1547,"han":1548,"side":1549,"zy":1550,"▁ic":1551,"▁cam":1552,"▁pot":1553,"▁mag":1554,"▁mill":1555,"▁find":1556,"▁dog":1557,"alan":1558,"▁low":1559,"▁wash":1560,"▁hah":1561,"urity":1562,"▁stri":1563,"▁vir":1564,"cher":1565,"▁over":1566,"▁traffic":1567,"▁blue":1568,"▁blazing":1569,"iful":1570,"▁try":1571,"play":1572,"ewitness":1573,"▁peace":1574,"▁fore":1575,"▁use":1576,"eek":1577,"▁hijacker":1578,"▁hijacking":1579,"▁murderer":1580,"▁sky":1581,"▁american":1582,"▁possible":1583,"▁pandemonium":1584,"▁beautiful":1585,"bur":1586,"de":1587,"my":1588,"ven":1589,"▁site":1590,"ero":1591,"▁case":1592,"any":1593,"▁town":1594,"ative":1595,"▁pop":1596,"▁park":1597,"▁pkk":1598,"▁den":1599,"▁dro":1600,"▁due":1601,"▁wonder":1602,"▁hug":1603,"▁now":1604,"▁reason":1605,"▁kind":1606,"uter":1607,"umber":1608,"▁place":1609,"ife":1610,"aily":1611,"▁policy":1612,"blaze":1613,"▁tweet":1614,"▁airport":1615,"▁bagging":1616,"▁caused":1617,"▁detonation":1618,"▁detonated":1619,"▁security":1620,"▁demolition":1621,"▁obliterated":1622,"▁medium":1623,"▁longer":1624,"▁eyewitness":1625,"▁crushed":1626,"▁nothing":1627,"▁capt":1628,"▁annihilated":1629,"▁block":1630,"▁tsunami":1631,"mar":1632,"oe":1633,"oice":1634,"sw":1635,"ten":1636,"ued":1637,"▁er":1638,"▁ant":1639,"▁bay":1640,"▁bush":1641,"▁pain":1642,"▁mp":1643,"▁maj":1644,"▁die":1645,"▁lar":1646,"▁lear":1647,"orry":1648,"▁ass":1649,"▁three":1650,"▁yet":1651,"oney":1652,"▁level":1653,"▁bey":1654,"▁prebreak":1655,"▁used":1656,"ismic":1657,"▁control":1658,"▁drowned":1659,"▁obliterate":1660,"▁obliteration":1661,"▁uph":1662,"▁demolished":1663,"▁hellfire":1664,"▁memory":1665,"▁shooting":1666,"▁austral":1667,"dle":1668,"ially":1669,"uz":1670,"yle":1671,"▁sad":1672,"erg":1673,"ready":1674,"▁clos":1675,"▁mess":1676,"▁making":1677,"▁done":1678,"ston":1679,"▁wake":1680,"enger":1681,"▁hat":1682,"▁hold":1683,"▁ash":1684,"ics":1685,"let":1686,"ital":1687,"▁no":1688,"▁stret":1689,"ention":1690,"▁rise":1691,"▁km":1692,"▁seismic":1693,"ief":1694,"▁conc":1695,"▁already":1696,"▁gov":1697,"ively":1698,"▁offensive":1699,"▁bring":1700,"▁horror":1701,"▁inside":1702,"▁america":1703,"▁nigga":1704,"▁transport":1705,"▁support":1706,"▁cyclone":1707,"▁believe":1708,"eaval":1709,"▁country":1710,"▁upheaval":1711,"ka":1712,"mm":1713,"ûat":1714,"▁ign":1715,"ins":1716,"▁sim":1717,"▁cou":1718,"▁brown":1719,"▁test":1720,"▁tree":1721,"▁pay":1722,"▁pur":1723,"▁form":1724,"▁wed":1725,"▁action":1726,"▁ablaze":1727,"icop":1728,"its":1729,"▁ge":1730,"▁rest":1731,"▁stud":1732,"▁vill":1733,"▁int":1734,"ired":1735,"▁jon":1736,"ement":1737,"▁sue":1738,"▁leave":1739,"arent":1740,"▁begin":1741,"▁comple":1742,"▁ûó":1743,"▁hey":1744,"▁class":1745,"▁brit":1746,"onde":1747,"▁tech":1748,"▁point":1749,"▁died":1750,"▁feeling":1751,"▁rainstorm":1752,"▁turkey":1753,"▁actually":1754,"▁front":1755,"▁crew":1756,"▁electrocute":1757,"▁month":1758,"▁israeli":1759,"▁snowstorm":1760,"▁favor":1761,"▁reactor":1762,"alanche":1763,"af":1764,"aim":1765,"ced":1766,"cal":1767,"hn":1768,"hem":1769,"hicle":1770,"lim":1771,"town":1772,"▁other":1773,"▁sol":1774,"▁side":1775,"▁cd":1776,"▁civ":1777,"ons":1778,"ats":1779,"▁fact":1780,"▁dav":1781,"▁line":1782,"▁ww":1783,"▁ago":1784,"▁ny":1785,"ilm":1786,"▁grow":1787,"isis":1788,"▁reû":1789,"▁occ":1790,"ande":1791,"▁yes":1792,"load":1793,"▁share":1794,"▁sex":1795,"rian":1796,"oung":1797,"ester":1798,"▁firefight":1799,"▁blizz":1800,"▁alm":1801,"▁trying":1802,"▁prom":1803,"▁prov":1804,"▁cover":1805,"▁saf":1806,"▁press":1807,"bert":1808,"▁yearold":1809,"▁helicop":1810,"▁todd":1811,"▁nearby":1812,"vastated":1813,"head":1814,"▁computer":1815,"▁declares":1816,"▁holly":1817,"▁gener":1818,"▁online":1819,"▁victim":1820,"▁nowplay":1821,"▁stretcher":1822,"▁civil":1823,"▁helicopter":1824,"ham":1825,"sy":1826,"ward":1827,"▁all":1828,"▁san":1829,"▁sing":1830,"▁sens":1831,"▁cry":1832,"ana":1833,"▁mic":1834,"▁mich":1835,"▁fast":1836,"▁dan":1837,"▁lt":1838,"▁liter":1839,"▁east":1840,"▁ris":1841,"▁je":1842,"▁jack":1843,"▁animal":1844,"▁conclus":1845,"▁worst":1846,"ipan":1847,"ift":1848,"ific":1849,"aving":1850,"▁fox":1851,"▁pret":1852,"▁phil":1853,"ize":1854,"ized":1855,"▁soudel":1856,"▁anything":1857,"▁avalanche":1858,"▁deluged":1859,"▁bioterrorism":1860,"▁open":1861,"▁listen":1862,"▁rubble":1863,"▁yeah":1864,"▁history":1865,"▁swallowed":1866,"▁major":1867,"▁nowplaying":1868,"net":1869,"oonde":1870,"ser":1871,"set":1872,"work":1873,"▁q":1874,"▁ol":1875,"▁ben":1876,"▁tv":1877,"▁tar":1878,"▁flo":1879,"▁data":1880,"▁daily":1881,"org":1882,"▁nw":1883,"▁name":1884,"▁glo":1885,"▁gem":1886,"▁king":1887,"▁ann":1888,"▁anth":1889,"iece":1890,"▁cond":1891,"▁blight":1892,"▁alarm":1893,"▁spot":1894,"▁rob":1895,"▁proper":1896,"▁saipan":1897,"artment":1898,"▁crazy":1899,"blem":1900,"▁flag":1901,"▁claim":1902,"▁quest":1903,"▁knock":1904,"naij":1905,"▁aircraft":1906,"▁maybe":1907,"▁watching":1908,"▁outside":1909,"ption":1910,"▁bigger":1911,"▁rule":1912,"▁center":1913,"▁handbag":1914,"▁typhoonde":1915,"▁christian":1916,"▁blizzard":1917,"▁almost":1918,"▁conclusively":1919,"▁typhoondevastated":1920,"ll":1921,"led":1922,"oid":1923,"sf":1924,"▁allow":1925,"▁so":1926,"▁cor":1927,"▁bbc":1928,"▁public":1929,"▁money":1930,"▁la":1931,"▁aut":1932,"les":1933,"▁est":1934,"ility":1935,"▁gb":1936,"▁reut":1937,"ela":1938,"amade":1939,"otion":1940,"urn":1941,"▁rich":1942,"▁russ":1943,"▁lie":1944,"umb":1945,"aken":1946,"▁track":1947,"▁space":1948,"▁trust":1949,"▁probab":1950,"▁coach":1951,"▁beh":1952,"▁heavy":1953,"▁flash":1954,"▁tex":1955,"▁contin":1956,"▁drink":1957,"▁green":1958,"▁miner":1959,"▁adv":1960,"▁bestnaij":1961,"▁interest":1962,"▁secret":1963,"▁happy":1964,"▁anyone":1965,"▁wrong":1966,"▁vehicle":1967,"▁moment":1968,"▁saved":1969,"▁motor":1970,"▁searching":1971,"▁social":1972,"▁direction":1973,"▁projected":1974,"▁literally":1975,"▁pretty":1976,"▁reuters":1977,"▁bestnaijamade":1978,"bs":1979,"ca":1980,"dale":1981,"gress":1982,"wx":1983,"wy":1984,"yy":1985,"▁ide":1986,"▁son":1987,"▁cut":1988,"▁cake":1989,"▁but":1990,"▁bill":1991,"▁ball":1992,"▁port":1993,"▁might":1994,"▁mish":1995,"▁main":1996,"▁fle":1997,"▁freak":1998,"▁film":1999,"▁law":2000,"▁wow":2001,"▁hero":2002,"▁nd":2003,"▁number":2004,"▁giant":2005,"▁det":2006,"▁neigh":2007,"▁thous":2008,"▁though":2009,"iring":2010,"ctor":2011,"▁amid":2012,"shock":2013,"▁lost":2014,"iew":2015,"▁blaze":2016,"▁mansl":2017,"iving":2018,"▁prev":2019,"▁everything":2020,"▁seek":2021,"▁damn":2022,"▁okay":2023,"▁uk":2024,"▁muslim":2025,"▁finally":2026,"▁color":2027,"▁total":2028,"▁expert":2029,"▁radio":2030,"▁trench":2031,"▁morning":2032,"▁omg":2033,"▁aftershock":2034,"▁couple":2035,"▁village":2036,"▁david":2037,"▁firefighter":2038,"▁hollywood":2039,"▁soudelor":2040,"▁probably":2041,"▁neighb":2042,"▁thousand":2043,"▁manslaughter":2044,"een":2045,"gs":2046,"▁å":2047,"▁sorry":2048,"▁comb":2049,"ates":2050,"▁pam":2051,"▁meek":2052,"▁fuk":2053,"▁dy":2054,"ington":2055,"▁lord":2056,"▁hate":2057,"icag":2058,"leep":2059,"▁et":2060,"▁equ":2061,"▁esc":2062,"▁give":2063,"rage":2064,"esday":2065,"▁thurs":2066,"ird":2067,"▁chance":2068,"▁york":2069,"▁young":2070,"▁seen":2071,"ught":2072,"▁blow":2073,"▁leather":2074,"ified":2075,"eller":2076,"▁problem":2077,"▁coast":2078,"osp":2079,"▁caught":2080,"▁crisis":2081,"▁feared":2082,"▁serious":2083,"▁poor":2084,"onto":2085,"▁meet":2086,"▁emotion":2087,"▁nearly":2088,"▁refugio":2089,"▁drive":2090,"▁hailstorm":2091,"▁desolate":2092,"▁annihilation":2093,"▁youth":2094,"▁costlier":2095,"▁course":2096,"▁million":2097,"▁australia":2098,"▁property":2099,"▁texas":2100,"aul":2101,"back":2102,"fc":2103,"field":2104,"gra":2105,"gest":2106,"kn":2107,"ted":2108,"ere":2109,"▁cnn":2110,"▁bed":2111,"▁banned":2112,"▁tor":2113,"▁pil":2114,"▁fem":2115,"▁dont":2116,"iting":2117,"ither":2118,"▁gal":2119,"iday":2120,"une":2121,"use":2122,"▁val":2123,"ears":2124,"▁exc":2125,"▁event":2126,"▁comment":2127,"▁result":2128,"▁climate":2129,"▁burn":2130,"▁carry":2131,"ondon":2132,"▁mayhem":2133,"▁soul":2134,"▁turn":2135,"▁reported":2136,"▁record":2137,"▁force":2138,"▁called":2139,"▁driver":2140,"ertain":2141,"▁pray":2142,"▁picking":2143,"▁declar":2144,"▁arsonist":2145,"▁niger":2146,"▁entire":2147,"▁utc":2148,"▁silver":2149,"▁palest":2150,"▁huge":2151,"▁others":2152,"▁gbbo":2153,"▁russian":2154,"▁idea":2155,"▁fukush":2156,"icago":2157,"ael":2158,"cle":2159,"eed":2160,"ead":2161,"iation":2162,"ject":2163,"list":2164,"ron":2165,"yd":2166,"inal":2167,"▁sit":2168,"▁sent":2169,"▁squ":2170,"▁sitt":2171,"rem":2172,"rew":2173,"reen":2174,"▁clo":2175,"▁canc":2176,"atic":2177,"▁path":2178,"▁mine":2179,"▁mph":2180,"▁four":2181,"▁hon":2182,"icket":2183,"▁econ":2184,"▁gop":2185,"room":2186,"ola":2187,"olut":2188,"rax":2189,"amed":2190,"oth":2191,"▁stra":2192,"▁view":2193,"agas":2194,"▁jam":2195,"ried":2196,"aki":2197,"▁cons":2198,"▁arrest":2199,"▁sport":2200,"▁truth":2201,"▁beach":2202,"▁become":2203,"▁united":2204,"owner":2205,"▁box":2206,"ains":2207,"▁usa":2208,"ashion":2209,"▁john":2210,"▁indian":2211,"▁playing":2212,"▁militant":2213,"ivers":2214,"▁company":2215,"▁across":2216,"▁metro":2217,"▁drake":2218,"▁epic":2219,"▁special":2220,"▁angry":2221,"▁camer":2222,"▁haha":2223,"▁closed":2224,"▁ignition":2225,"▁wedn":2226,"▁favorite":2227,"▁toddler":2228,"▁global":2229,"▁anthrax":2230,"▁mishap":2231,"dp":2232,"den":2233,"gy":2234,"ha":2235,"off":2236,"uke":2237,"yl":2238,"▁cant":2239,"▁cree":2240,"anmar":2241,"ony":2242,"▁ban":2243,"▁tro":2244,"▁tow":2245,"▁taken":2246,"▁piece":2247,"▁mc":2248,"▁member":2249,"▁fashion":2250,"▁da":2251,"▁date":2252,"▁will":2253,"enc":2254,"▁auth":2255,"▁gas":2256,"road":2257,"ollo":2258,"amin":2259,"▁deep":2260,"unt":2261,"ussia":2262,"eth":2263,"esome":2264,"▁exch":2265,"▁arri":2266,"▁alone":2267,"▁spring":2268,"▁room":2269,"merdale":2270,"▁beat":2271,"▁flight":2272,"▁quiz":2273,"▁polit":2274,"▁feat":2275,"▁teen":2276,"▁abs":2277,"▁looking":2278,"▁emmerdale":2279,"▁appears":2280,"▁running":2281,"▁activ":2282,"▁happened":2283,"▁strong":2284,"▁avoid":2285,"edding":2286,"▁centre":2287,"▁totally":2288,"▁issued":2289,"▁gtgt":2290,"▁temple":2291,"▁myanmar":2292,"▁disea":2293,"▁passenger":2294,"▁strike":2295,"▁large":2296,"▁learn":2297,"▁british":2298,"▁risk":2299,"▁target":2300,"▁thursday":2301,"▁declaration":2302,"▁fukushima":2303,"dict":2304,"fer":2305,"mus":2306,"mond":2307,"ox":2308,"ove":2309,"sm":2310,"su":2311,"uel":2312,"▁ug":2313,"▁ud":2314,"▁sleep":2315,"▁ce":2316,"▁bit":2317,"▁till":2318,"▁pull":2319,"▁mop":2320,"▁map":2321,"▁fal":2322,"▁fant":2323,"▁dude":2324,"ald":2325,"▁led":2326,"▁lake":2327,"▁london":2328,"▁hill":2329,"▁eu":2330,"▁nagas":2331,"▁germ":2332,"olf":2333,"▁release":2334,"oma":2335,"▁dev":2336,"asy":2337,"ether":2338,"▁vis":2339,"▁opp":2340,"▁liby":2341,"▁chile":2342,"▁chicago":2343,"andon":2344,"▁seem":2345,"▁season":2346,"rib":2347,"ulation":2348,"anta":2349,"▁anc":2350,"▁answ":2351,"▁alb":2352,"▁disney":2353,"▁uncon":2354,"▁crack":2355,"ained":2356,"▁small":2357,"iterr":2358,"ogra":2359,"▁expect":2360,"▁early":2361,"▁apollo":2362,"▁wanted":2363,"▁perf":2364,"▁differ":2365,"rent":2366,"▁ready":2367,"▁horse":2368,"▁broad":2369,"▁mediterr":2370,"▁respond":2371,"▁financ":2372,"▁else":2373,"▁party":2374,"▁driving":2375,"▁theater":2376,"▁info":2377,"▁reddits":2378,"▁devastated":2379,"▁commun":2380,"▁downtown":2381,"▁download":2382,"▁instead":2383,"▁invol":2384,"▁mountain":2385,"▁court":2386,"ology":2387,"▁protect":2388,"▁insurance":2389,"▁washington":2390,"▁virgin":2391,"▁student":2392,"▁civilian":2393,"▁michael":2394,"▁question":2395,"▁behind":2396,"▁answer":2397,"aan":2398,"bit":2399,"des":2400,"desh":2401,"fa":2402,"gg":2403,"gle":2404,"hya":2405,"iat":2406,"la":2407,"mp":2408,"med":2409,"ped":2410,"pol":2411,"rick":2412,"ta":2413,"tw":2414,"uh":2415,"▁and":2416,"▁ill":2417,"▁owner":2418,"inist":2419,"▁sig":2420,"▁bb":2421,"▁bud":2422,"▁bitch":2423,"▁ter":2424,"▁taking":2425,"▁pri":2426,"▁ppl":2427,"▁parent":2428,"▁mi":2429,"▁mind":2430,"▁mult":2431,"▁match":2432,"▁mention":2433,"▁dj":2434,"▁dad":2435,"▁dist":2436,"▁dance":2437,"▁dream":2438,"▁dark":2439,"stand":2440,"▁luck":2441,"▁lamp":2442,"▁lma":2443,"▁wall":2444,"ense":2445,"▁ho":2446,"▁hair":2447,"▁hiring":2448,"▁gave":2449,"▁gott":2450,"ison":2451,"▁rese":2452,"elsa":2453,"acy":2454,"ada":2455,"ves":2456,"▁rly":2457,"▁russia":2458,"▁vote":2459,"aste":2460,"▁shift":2461,"rie":2462,"ormation":2463,"tern":2464,"▁worry":2465,"ipe":2466,"▁true":2467,"here":2468,"▁prod":2469,"▁rail":2470,"▁scared":2471,"▁scene":2472,"pper":2473,"▁quick":2474,"athan":2475,"▁image":2476,"▁join":2477,"actic":2478,"▁outrage":2479,"reddit":2480,"▁landing":2481,"▁turned":2482,"▁bless":2483,"▁afg":2484,"▁afric":2485,"▁appro":2486,"▁funten":2487,"▁career":2488,"▁tote":2489,"▁pradesh":2490,"▁standard":2491,"▁madhya":2492,"▁awesome":2493,"▁patience":2494,"▁subreddit":2495,"▁following":2496,"▁middle":2497,"▁added":2498,"▁disease":2499,"joy":2500,"▁bayelsa":2501,"▁govt":2502,"▁former":2503,"▁colorado":2504,"▁escape":2505,"▁nigerian":2506,"▁close":2507,"▁wednesday":2508,"▁nagasaki":2509,"▁libya":2510,"▁ancient":2511,"▁funtenna":2512,"▁subreddits":2513,"aff":2514,"bt":2515,"body":2516,"dy":2517,"for":2518,"fro":2519,"firm":2520,"gu":2521,"gal":2522,"iety":2523,"mon":2524,"more":2525,"no":2526,"oen":2527,"ps":2528,"pris":2529,"tv":2530,"time":2531,"inian":2532,"▁sam":2533,"▁sick":2534,"▁sold":2535,"erman":2536,"rel":2537,"▁bre":2538,"▁bas":2539,"▁bir":2540,"▁bul":2541,"▁tit":2542,"▁told":2543,"▁table":2544,"▁tax":2545,"▁pun":2546,"▁pack":2547,"▁mile":2548,"▁mix":2549,"▁mode":2550,"▁max":2551,"▁dc":2552,"▁double":2553,"▁lim":2554,"▁ave":2555,"itor":2556,"▁gm":2557,"▁review":2558,"eline":2559,"acter":2560,"▁vers":2561,"▁throw":2562,"▁oper":2563,"lyn":2564,"▁sea":2565,"cept":2566,"▁amaz":2567,"▁among":2568,"▁los":2569,"▁travel":2570,"▁worse":2571,"iph":2572,"ians":2573,"osed":2574,"▁queen":2575,"▁office":2576,"▁enough":2577,"ension":2578,"▁seeing":2579,"▁account":2580,"▁series":2581,"▁guess":2582,"▁desc":2583,"▁desire":2584,"▁working":2585,"▁window":2586,"▁thinking":2587,"▁upon":2588,"▁brother":2589,"▁biggest":2590,"▁france":2591,"▁iû":2592,"▁gunman":2593,"▁likely":2594,"▁ebola":2595,"▁parole":2596,"▁department":2597,"▁pakistani":2598,"▁potus":2599,"▁capture":2600,"▁holding":2601,"▁jonathan":2602,"▁techn":2603,"▁general":2604,"▁neighbour":2605,"▁pamela":2606,"▁galactic":2607,"▁palestinian":2608,"music":2609,"▁unconfirm":2610,"▁lmao":2611,"▁research":2612,"▁afghan":2613,"▁unconfirmed":2614,"bor":2615,"cast":2616,"dc":2617,"ev":2618,"fall":2619,"friend":2620,"gram":2621,"har":2622,"ior":2623,"lah":2624,"mator":2625,"ns":2626,"nect":2627,"pre":2628,"par":2629,"sk":2630,"ws":2631,"war":2632,"inc":2633,"▁cold":2634,"ones":2635,"▁bic":2636,"▁tun":2637,"▁tim":2638,"▁paul":2639,"▁lou":2640,"▁wel":2641,"▁wish":2642,"▁waving":2643,"▁wedding":2644,"▁hom":2645,"▁ak":2646,"▁aud":2647,"▁ahead":2648,"▁nyc":2649,"▁gay":2650,"▁gold":2651,"▁geller":2652,"ida":2653,"▁rout":2654,"▁incl":2655,"▁kick":2656,"irt":2657,"aged":2658,"▁living":2659,"▁yo":2660,"▁yyc":2661,"sec":2662,"ution":2663,"ular":2664,"▁local":2665,"▁alab":2666,"▁planned":2667,"▁ross":2668,"▁prof":2669,"phy":2670,"▁unit":2671,"▁text":2672,"▁abandon":2673,"▁expected":2674,"▁ground":2675,"▁playlist":2676,"▁orig":2677,"▁turk":2678,"▁cremator":2679,"▁falling":2680,"▁japanese":2681,"▁strug":2682,"▁started":2683,"▁funny":2684,"▁tried":2685,"▁investigating":2686,"▁republic":2687,"▁glad":2688,"▁internet":2689,"▁rocky":2690,"▁article":2691,"▁door":2692,"▁leader":2693,"▁donûat":2694,"▁understand":2695,"▁petition":2696,"▁prepared":2697,"▁cdt":2698,"▁occur":2699,"▁provoke":2700,"▁safety":2701,"▁philipp":2702,"▁interesting":2703,"▁motorcy":2704,"ospital":2705,"▁arrested":2706,"▁album":2707,"▁different":2708,"▁financial":2709,"▁alabama":2710,"ban":2711,"cus":2712,"gl":2713,"hamp":2714,"iam":2715,"iest":2716,"ming":2717,"pro":2718,"tf":2719,"wo":2720,"wan":2721,"west":2722,"yon":2723,"zen":2724,"ino":2725,"▁sund":2726,"erc":2727,"▁cable":2728,"▁bear":2729,"▁bath":2730,"▁tre":2731,"▁tai":2732,"▁treat":2733,"▁pc":2734,"▁pas":2735,"▁pile":2736,"▁pict":2737,"▁mary":2738,"▁matter":2739,"▁doc":2740,"ority":2741,"orge":2742,"▁wm":2743,"enal":2744,"▁ha":2745,"▁ham":2746,"▁hospital":2747,"lect":2748,"▁non":2749,"▁giving":2750,"▁repl":2751,"elve":2752,"ung":2753,"unch":2754,"oday":2755,"▁van":2756,"▁kur":2757,"ager":2758,"▁yah":2759,"lock":2760,"look":2761,"▁short":2762,"utch":2763,"emoon":2764,"shot":2765,"▁const":2766,"▁arian":2767,"▁alex":2768,"▁spe":2769,"▁disapp":2770,"▁proph":2771,"▁program":2772,"ending":2773,"▁screen":2774,"▁resident":2775,"ishing":2776,"▁board":2777,"▁buy":2778,"▁killing":2779,"▁offroad":2780,"▁crime":2781,"▁crane":2782,"▁imag":2783,"▁marians":2784,"▁twelve":2785,"▁aba":2786,"▁guide":2787,"▁guard":2788,"▁delivers":2789,"book":2790,"▁character":2791,"▁oklah":2792,"▁brook":2793,"▁recount":2794,"▁forg":2795,"▁strate":2796,"▁current":2797,"▁information":2798,"▁central":2799,"▁weekend":2800,"▁epis":2801,"▁price":2802,"▁glass":2803,"▁ital":2804,"▁internally":2805,"▁western":2806,"▁governor":2807,"▁sometimes":2808,"▁salt":2809,"aux":2810,"▁took":2811,"▁angel":2812,"▁sense":2813,"▁prepare":2814,"▁insurer":2815,"burg":2816,"▁single":2817,"▁etc":2818,"▁pilot":2819,"▁sitting":2820,"▁absolut":2821,"▁udhamp":2822,"▁community":2823,"▁birth":2824,"▁crematorium":2825,"▁occurred":2826,"▁sunday":2827,"▁taiwan":2828,"▁oklahoma":2829,"bro":2830,"don":2831,"ford":2832,"ien":2833,"ki":2834,"uly":2835,"vd":2836,"wa":2837,"ww":2838,"▁ig":2839,"iny":2840,"inst":2841,"▁sar":2842,"▁six":2843,"erry":2844,"res":2845,"▁cow":2846,"ani":2847,"onse":2848,"▁bell":2849,"▁bank":2850,"▁tog":2851,"atri":2852,"▁ml":2853,"▁mr":2854,"▁mac":2855,"▁fut":2856,"▁felt":2857,"▁fuel":2858,"▁faux":2859,"inger":2860,"ality":2861,"▁lil":2862,"▁lane":2863,"▁later":2864,"ica":2865,"ouch":2866,"ould":2867,"▁nice":2868,"▁nav":2869,"▁nick":2870,"▁gone":2871,"▁reach":2872,"racy":2873,"elly":2874,"▁stream":2875,"▁stress":2876,"odd":2877,"ential":2878,"▁rid":2879,"▁rate":2880,"▁rip":2881,"chat":2882,"▁thr":2883,"ague":2884,"▁shape":2885,"uty":2886,"ully":2887,"ema":2888,"▁loss":2889,"▁loved":2890,"aker":2891,"▁examin":2892,"ugu":2893,"▁arab":2894,"▁spark":2895,"▁trump":2896,"iven":2897,"▁flor":2898,"▁killer":2899,"▁enugu":2900,"anging":2901,"▁usat":2902,"▁using":2903,"▁airline":2904,"▁saying":2905,"▁express":2906,"▁apc":2907,"▁adm":2908,"▁indust":2909,"▁emp":2910,"box":2911,"▁played":2912,"▁broke":2913,"▁helping":2914,"▁friday":2915,"▁happen":2916,"▁happening":2917,"▁evening":2918,"▁response":2919,"▁wrought":2920,"▁metal":2921,"▁pract":2922,"▁suspected":2923,"▁common":2924,"▁international":2925,"▁enter":2926,"▁canada":2927,"▁youû":2928,"▁region":2929,"▁linked":2930,"▁islamic":2931,"▁return":2932,"▁president":2933,"when":2934,"▁walking":2935,"▁denver":2936,"▁beyond":2937,"▁foxnews":2938,"▁straight":2939,"▁cameroon":2940,"▁euro":2941,"▁involving":2942,"▁soldier":2943,"▁version":2944,"▁amazon":2945,"▁technology":2946,"▁turkish":2947,"▁struggle":2948,"▁philippine":2949,"▁prophet":2950,"▁brooklyn":2951,"▁episode":2952,"▁absolutely":2953,"▁udhampur":2954,"▁future":2955,"bie":2956,"gon":2957,"gic":2958,"hol":2959,"hear":2960,"king":2961,"mas":2962,"met":2963,"nam":2964,"oss":2965,"ogen":2966,"rr":2967,"ration":2968,"rup":2969,"uation":2970,"where":2971,"ye":2972,"▁ice":2973,"ines":2974,"inder":2975,"▁sister":2976,"▁cro":2977,"▁bin":2978,"▁bow":2979,"▁brow":2980,"▁base":2981,"▁batter":2982,"▁ten":2983,"▁ticket":2984,"▁pap":2985,"▁matt":2986,"▁mumb":2987,"▁fra":2988,"▁fort":2989,"▁five":2990,"▁fund":2991,"▁fix":2992,"▁fair":2993,"▁fully":2994,"▁dar":2995,"▁dor":2996,"▁dub":2997,"alt":2998,"aling":2999,"▁lat":3000,"▁wood":3001,"▁wife":3002,"▁wtf":3003,"▁hil":3004,"▁haw":3005,"▁ah":3006,"ico":3007,"ication":3008,"icip":3009,"▁esp":3010,"▁nc":3011,"▁gust":3012,"▁german":3013,"▁recover":3014,"rad":3015,"rain":3016,"idence":3017,"▁stad":3018,"▁stuff":3019,"unging":3020,"▁round":3021,"▁rather":3022,"used":3023,"▁kit":3024,"▁tho":3025,"▁lift":3026,"▁chief":3027,"▁jul":3028,"love":3029,"▁shar":3030,"▁shad":3031,"▁shut":3032,"ument":3033,"ffee":3034,"▁load":3035,"▁lock":3036,"▁lose":3037,"▁trap":3038,"▁suffer":3039,"▁alive":3040,"▁along":3041,"▁worth":3042,"▁plant":3043,"▁plunging":3044,"▁spac":3045,"aren":3046,"▁discover":3047,"▁roose":3048,"▁robert":3049,"▁cook":3050,"aza":3051,"▁prem":3052,"▁predict":3053,"ource":3054,"▁phoen":3055,"▁env":3056,"▁surpris":3057,"▁moving":3058,"enso":3059,"▁smaug":3060,"ismo":3061,"▁joe":3062,"▁demon":3063,"▁training":3064,"▁swim":3065,"ioch":3066,"ptic":3067,"▁causing":3068,"▁player":3069,"velt":3070,"▁photogra":3071,"▁setting":3072,"▁anymore":3073,"▁edm":3074,"▁ûïwhen":3075,"▁hurt":3076,"▁caps":3077,"▁repatri":3078,"▁steph":3079,"▁fighting":3080,"ipped":3081,"▁specially":3082,"▁incre":3083,"▁incident":3084,"▁saving":3085,"▁agree":3086,"▁impact":3087,"ground":3088,"▁clean":3089,"orsenso":3090,"▁forever":3091,"▁population":3092,"▁kinda":3093,"▁antioch":3094,"▁message":3095,"▁purse":3096,"▁sensorsenso":3097,"▁jackson":3098,"▁allows":3099,"▁richmond":3100,"▁prevent":3101,"▁pathogen":3102,"▁perfect":3103,"▁africa":3104,"▁tablet":3105,"▁louis":3106,"▁republican":3107,"▁picture":3108,"▁together":3109,"▁usatoday":3110,"▁industry":3111,"▁stadium":3112,"▁roosevelt":3113,"▁phoenix":3114,"ae":3115,"bu":3116,"bar":3117,"bing":3118,"ci":3119,"cot":3120,"do":3121,"ding":3122,"girl":3123,"hal":3124,"host":3125,"hood":3126,"jay":3127,"ks":3128,"ken":3129,"life":3130,"mu":3131,"mag":3132,"oint":3133,"por":3134,"right":3135,"rande":3136,"tion":3137,"times":3138,"uce":3139,"weet":3140,"xx":3141,"yal":3142,"you":3143,"▁ult":3144,"▁ille":3145,"▁sid":3146,"▁sir":3147,"erence":3148,"▁clear":3149,"▁certain":3150,"once":3151,"▁based":3152,"eds":3153,"edu":3154,"▁tear":3155,"▁mun":3156,"▁mist":3157,"▁mort":3158,"▁mike":3159,"arious":3160,"▁ft":3161,"▁fro":3162,"▁fly":3163,"▁fren":3164,"▁ferg":3165,"▁doll":3166,"▁daughter":3167,"alm":3168,"star":3169,"stem":3170,"▁lu":3171,"▁lion":3172,"▁lad":3173,"▁lang":3174,"▁laug":3175,"orld":3176,"▁hop":3177,"▁aver":3178,"▁able":3179,"ically":3180,"▁nas":3181,"▁net":3182,"▁navy":3183,"iled":3184,"▁gam":3185,"▁ren":3186,"▁reve":3187,"raq":3188,"omm":3189,"omy":3190,"urch":3191,"▁stage":3192,"▁step":3193,"▁deg":3194,"ental":3195,"ett":3196,"▁vac":3197,"image":3198,"chester":3199,"esse":3200,"agrande":3201,"▁oc":3202,"▁oce":3203,"▁chill":3204,"▁yall":3205,"▁jay":3206,"▁jet":3207,"▁jew":3208,"▁jud":3209,"▁jour":3210,"▁seattle":3211,"rif":3212,"rike":3213,"show":3214,"▁loc":3215,"▁alle":3216,"▁leaving":3217,"hero":3218,"▁compl":3219,"▁quote":3220,"▁buff":3221,"▁enjoy":3222,"▁brought":3223,"ocide":3224,"▁usgs":3225,"▁accord":3226,"ashville":3227,"▁drone":3228,"▁drunk":3229,"uced":3230,"▁earlier":3231,"▁sweet":3232,"▁grill":3233,"▁delay":3234,"▁upset":3235,"▁diam":3236,"▁interview":3237,"boy":3238,"rison":3239,"▁destroys":3240,"▁reading":3241,"▁organ":3242,"▁atl":3243,"▁apparent":3244,"▁happens":3245,"▁electric":3246,"▁slow":3247,"▁iraq":3248,"▁snap":3249,"▁forget":3250,"▁skin":3251,"▁debate":3252,"▁colle":3253,"▁notice":3254,"fully":3255,"ooth":3256,"aaaa":3257,"▁effort":3258,"▁modified":3259,"▁structure":3260,"ipping":3261,"▁brain":3262,"▁dangerous":3263,"eship":3264,"▁selfimage":3265,"▁grab":3266,"▁temper":3267,"▁radiation":3268,"▁trent":3269,"▁talking":3270,"▁syrian":3271,"▁justin":3272,"▁football":3273,"▁protest":3274,"▁blocked":3275,"▁georg":3276,"▁complete":3277,"andeal":3278,"▁jeb":3279,"▁condition":3280,"▁fleet":3281,"▁emotional":3282,"▁carrying":3283,"▁cancer":3284,"▁honest":3285,"▁consider":3286,"▁epicent":3287,"▁exchanging":3288,"▁false":3289,"▁lucky":3290,"▁gotta":3291,"rief":3292,"▁bullet":3293,"▁operation":3294,"▁route":3295,"▁abandoned":3296,"▁arianagrande":3297,"▁birthday":3298,"▁hawai":3299,"▁shadow":3300,"▁spaceship":3301,"▁repatriated":3302,"▁ocean":3303,"▁according":3304,"ao":3305,"aû":3306,"bomb":3307,"bound":3308,"cr":3309,"car":3310,"cent":3311,"cake":3312,"eer":3313,"eat":3314,"fit":3315,"face":3316,"gent":3317,"iro":3318,"live":3319,"min":3320,"mfa":3321,"nb":3322,"nel":3323,"pect":3324,"post":3325,"pical":3326,"sb":3327,"sn":3328,"sû":3329,"sos":3330,"tle":3331,"uit":3332,"upp":3333,"uart":3334,"val":3335,"vis":3336,"vely":3337,"walk":3338,"watch":3339,"ince":3340,"inton":3341,"inema":3342,"▁sismo":3343,"read":3344,"reme":3345,"▁cn":3346,"▁cir":3347,"▁cab":3348,"▁cust":3349,"▁cup":3350,"▁by":3351,"▁batt":3352,"▁bout":3353,"▁bound":3354,"▁bott":3355,"▁tent":3356,"▁tip":3357,"▁tenn":3358,"▁tired":3359,"▁tension":3360,"▁touch":3361,"ature":3362,"▁psy":3363,"▁pdp":3364,"▁mf":3365,"▁mach":3366,"arian":3367,"▁fit":3368,"▁fest":3369,"▁dm":3370,"▁dom":3371,"▁dig":3372,"▁dying":3373,"alo":3374,"step":3375,"oration":3376,"order":3377,"orial":3378,"▁wd":3379,"▁wx":3380,"▁woke":3381,"▁hy":3382,"▁hob":3383,"▁hwy":3384,"▁aid":3385,"▁eat":3386,"▁either":3387,"▁none":3388,"ilt":3389,"▁gar":3390,"▁rev":3391,"▁requ":3392,"omas":3393,"acher":3394,"ayer":3395,"oting":3396,"▁stone":3397,"unes":3398,"▁rn":3399,"▁rand":3400,"imb":3401,"iminal":3402,"▁kar":3403,"▁that":3404,"▁them":3405,"▁option":3406,"▁lif":3407,"astic":3408,"oph":3409,"oper":3410,"▁choice":3411,"▁church":3412,"▁yester":3413,"▁jama":3414,"sea":3415,"▁shel":3416,"▁shop":3417,"▁shall":3418,"▁seat":3419,"ightly":3420,"istic":3421,"allen":3422,"teran":3423,"▁tram":3424,"▁trail":3425,"▁connect":3426,"▁alas":3427,"ipment":3428,"▁rot":3429,"aven":3430,"▁ray":3431,"▁manchester":3432,"▁weird":3433,"▁coffee":3434,"ival":3435,"▁science":3436,"▁unf":3437,"▁unlock":3438,"▁cloud":3439,"▁quite":3440,"anean":3441,"▁enc":3442,"bling":3443,"▁usually":3444,"ization":3445,"▁cruz":3446,"▁moon":3447,"▁hello":3448,"▁pool":3449,"▁meat":3450,"▁design":3451,"itten":3452,"▁deadly":3453,"▁catch":3454,"▁damaged":3455,"▁legacy":3456,"▁charl":3457,"▁remove":3458,"ressed":3459,"▁broken":3460,"▁apply":3461,"gov":3462,"▁colour":3463,"▁veteran":3464,"▁repair":3465,"▁follower":3466,"▁incred":3467,"▁supposed":3468,"▁relief":3469,"▁decision":3470,"▁waiting":3471,"▁extreme":3472,"▁satur":3473,"▁project":3474,"▁humanity":3475,"lines":3476,"ological":3477,"▁potential":3478,"▁kindle":3479,"▁wwii":3480,"▁grows":3481,"▁promise":3482,"▁allah":3483,"▁floor":3484,"▁robot":3485,"▁corre":3486,"▁combo":3487,"▁equipment":3488,"▁feminist":3489,"▁squad":3490,"remely":3491,"▁economic":3492,"▁toward":3493,"▁sleeping":3494,"▁seems":3495,"▁mediterranean":3496,"▁signed":3497,"▁multip":3498,"▁hobo":3499,"▁approach":3500,"▁afghanistan":3501,"▁welcome":3502,"▁includ":3503,"▁document":3504,"▁imagine":3505,"▁currently":3506,"▁examining":3507,"▁browser":3508,"icipal":3509,"▁illegal":3510,"▁municipal":3511,"▁french":3512,"▁fergus":3513,"▁degree":3514,"▁hawaii":3515,"▁psych":3516,"▁yesterday":3517,"bi":3518,"bot":3519,"but":3520,"dd":3521,"eel":3522,"east":3523,"fo":3524,"gn":3525,"just":3526,"ko":3527,"ker":3528,"kid":3529,"lad":3530,"mc":3531,"nal":3532,"pa":3533,"pd":3534,"po":3535,"pr":3536,"ping":3537,"round":3538,"sch":3539,"sian":3540,"tra":3541,"tely":3542,"ues":3543,"vation":3544,"wf":3545,"wol":3546,"ze":3547,"zz":3548,"zil":3549,"▁ot":3550,"▁ie":3551,"▁ian":3552,"inah":3553,"▁si":3554,"▁sale":3555,"rey":3556,"▁cast":3557,"▁card":3558,"▁crow":3559,"▁cinema":3560,"▁bi":3561,"▁bat":3562,"▁band":3563,"▁tal":3564,"▁tour":3565,"▁tank":3566,"▁trol":3567,"▁pill":3568,"▁pip":3569,"▁puss":3570,"▁pitch":3571,"▁prison":3572,"▁ma":3573,"▁md":3574,"▁mt":3575,"▁mis":3576,"▁fill":3577,"▁fine":3578,"▁fif":3579,"▁fell":3580,"▁finger":3581,"▁did":3582,"▁dry":3583,"▁dnb":3584,"alia":3585,"orse":3586,"▁wing":3587,"▁wis":3588,"▁wear":3589,"▁wont":3590,"▁would":3591,"eng":3592,"ender":3593,"enews":3594,"▁has":3595,"▁huff":3596,"▁age":3597,"itude":3598,"▁nbc":3599,"rap":3600,"ray":3601,"idual":3602,"▁stab":3603,"▁stup":3604,"▁store":3605,"asure":3606,"ently":3607,"▁ron":3608,"etnam":3609,"▁va":3610,"▁voice":3611,"chor":3612,"▁inn":3613,"▁inch":3614,"▁neg":3615,"▁ker":3616,"▁komb":3617,"▁of":3618,"▁challen":3619,"thood":3620,"anda":3621,"andy":3622,"▁yell":3623,"▁jac":3624,"▁jim":3625,"loy":3626,"▁shower":3627,"▁shoe":3628,"▁seven":3629,"▁amazing":3630,"▁newy":3631,"▁loop":3632,"▁loving":3633,"▁loose":3634,"▁lovely":3635,"▁exit":3636,"▁exec":3637,"▁except":3638,"abe":3639,"▁spl":3640,"▁spin":3641,"▁spos":3642,"area":3643,"▁disc":3644,"▁disrup":3645,"▁goal":3646,"▁trfc":3647,"▁rol":3648,"▁rom":3649,"▁root":3650,"▁rose":3651,"▁roof":3652,"ellite":3653,"▁progress":3654,"oking":3655,"▁rap":3656,"inds":3657,"▁cock":3658,"▁safe":3659,"▁bee":3660,"▁began":3661,"▁crap":3662,"ahah":3663,"▁flat":3664,"berry":3665,"▁calm":3666,"clist":3667,"▁phys":3668,"▁knee":3669,"▁offer":3670,"▁enem":3671,"▁user":3672,"▁criminal":3673,"▁feed":3674,"▁everywhere":3675,"▁maria":3676,"▁abstorm":3677,"▁drill":3678,"▁drug":3679,"▁worldnews":3680,"▁democ":3681,"▁minister":3682,"ruit":3683,"▁apartment":3684,"▁hearing":3685,"▁outlook":3686,"▁adult":3687,"▁worker":3688,"▁grand":3689,"ilet":3690,"▁percent":3691,"board":3692,"▁recall":3693,"▁respons":3694,"▁irandeal":3695,"▁forb":3696,"▁create":3697,"▁final":3698,"▁writing":3699,"▁vietnam":3700,"▁stopped":3701,"▁engine":3702,"▁england":3703,"▁highway":3704,"▁confirms":3705,"▁tribal":3706,"▁careful":3707,"▁opening":3708,"▁steve":3709,"▁kidn":3710,"yclist":3711,"▁itunes":3712,"▁battlefield":3713,"▁canyon":3714,"▁brazil":3715,"▁blog":3716,"▁genocide":3717,"ymp":3718,"▁inundation":3719,"▁dozen":3720,"▁related":3721,"▁leading":3722,"▁agre":3723,"▁rubber":3724,"▁hunt":3725,"▁hunter":3726,"▁system":3727,"▁satellite":3728,"▁fresh":3729,"▁asked":3730,"▁forecast":3731,"▁beyonce":3732,"ergy":3733,"▁george":3734,"▁completely":3735,"▁prompt":3736,"▁pressure":3737,"▁sensor":3738,"▁announ":3739,"▁autom":3740,"▁estimate":3741,"▁continue":3742,"▁directioners":3743,"▁butter":3744,"▁totaling":3745,"▁seriously":3746,"▁meeting":3747,"▁situation":3748,"▁economy":3749,"▁ceo":3750,"▁fantasy":3751,"▁visit":3752,"▁budget":3753,"▁quickly":3754,"▁limited":3755,"▁bicyclist":3756,"▁original":3757,"▁preparedness":3758,"▁motorcyclist":3759,"▁strategy":3760,"▁florida":3761,"▁practice":3762,"▁hilarious":3763,"arenthood":3764,"▁laden":3765,"▁reveal":3766,"▁diamond":3767,"▁georgia":3768,"▁honestly":3769,"▁epicentre":3770,"▁hobbit":3771,"▁pussy":3772,"▁stupid":3773,"▁kombat":3774,"ba":3775,"bh":3776,"bra":3777,"bell":3778,"care":3779,"cial":3780,"ext":3781,"fan":3782,"hive":3783,"ih":3784,"jk":3785,"lict":3786,"mal":3787,"mad":3788,"nd":3789,"noon":3790,"oop":3791,"ored":3792,"pet":3793,"ria":3794,"rated":3795,"uction":3796,"vy":3797,"wn":3798,"world":3799,"yan":3800,"za":3801,"▁onto":3802,"▁iph":3803,"inj":3804,"iner":3805,"▁sr":3806,"▁sac":3807,"▁sum":3808,"▁source":3809,"erned":3810,"resc":3811,"rell":3812,"▁cum":3813,"▁cart":3814,"▁bal":3815,"▁bought":3816,"edy":3817,"▁ted":3818,"▁tac":3819,"▁tong":3820,"▁tonto":3821,"▁tcot":3822,"ato":3823,"atre":3824,"▁ped":3825,"▁ple":3826,"▁pac":3827,"▁poll":3828,"▁page":3829,"▁poc":3830,"▁pump":3831,"▁parenthood":3832,"▁mat":3833,"▁mht":3834,"▁mont":3835,"ars":3836,"▁faan":3837,"▁fruit":3838,"▁dt":3839,"▁dick":3840,"alert":3841,"ste":3842,"stone":3843,"▁les":3844,"▁lone":3845,"▁lmfa":3846,"▁wire":3847,"▁wired":3848,"▁hwo":3849,"▁aim":3850,"▁auss":3851,"outh":3852,"▁easy":3853,"▁nh":3854,"▁nu":3855,"▁nation":3856,"▁norm":3857,"▁nah":3858,"▁nurs":3859,"▁nashville":3860,"rot":3861,"isory":3862,"▁reop":3863,"▁reaû":3864,"ract":3865,"ractor":3866,"aming":3867,"ions":3868,"ayl":3869,"ota":3870,"uran":3871,"▁stick":3872,"igan":3873,"asion":3874,"▁ridge":3875,"usa":3876,"▁vin":3877,"▁vul":3878,"▁vine":3879,"imp":3880,"▁inner":3881,"esû":3882,"esid":3883,"▁ki":3884,"▁ken":3885,"▁kiss":3886,"▁thet":3887,"▁thomas":3888,"iron":3889,"irit":3890,"agan":3891,"▁libr":3892,"▁chann":3893,"▁champ":3894,"that":3895,"ander":3896,"anded":3897,"▁jan":3898,"▁jst":3899,"atest":3900,"▁shame":3901,"▁shock":3902,"▁sept":3903,"ription":3904,"eme":3905,"ounder":3906,"antly":3907,"illa":3908,"istant":3909,"aked":3910,"▁exact":3911,"▁anchor":3912,"▁suck":3913,"▁plus":3914,"▁span":3915,"▁spent":3916,"▁spirit":3917,"▁disco":3918,"ifi":3919,"▁row":3920,"▁rac":3921,"phant":3922,"ended":3923,"ures":3924,"▁weak":3925,"▁wealth":3926,"▁scott":3927,"▁becom":3928,"▁commer":3929,"▁uns":3930,"▁union":3931,"▁unless":3932,"▁fog":3933,"▁prec":3934,"ished":3935,"▁bob":3936,"aint":3937,"▁clip":3938,"▁club":3939,"▁warship":3940,"cloud":3941,"▁knew":3942,"▁bruh":3943,"▁surround":3944,"izes":3945,"▁moved":3946,"▁father":3947,"▁twice":3948,"ample":3949,"▁smh":3950,"▁access":3951,"▁held":3952,"▁abb":3953,"▁mayan":3954,"ogn":3955,"▁reduce":3956,"▁greatest":3957,"▁mini":3958,"▁zion":3959,"▁zomb":3960,"▁appl":3961,"apped":3962,"▁watched":3963,"▁mex":3964,"▁massive":3965,"▁indiv":3966,"▁indeed":3967,"awn":3968,"▁charity":3969,"▁charge":3970,"▁exploration":3971,"▁mission":3972,"▁type":3973,"▁conference":3974,"▁recomm":3975,"▁respect":3976,"▁ii":3977,"▁forced":3978,"▁calling":3979,"▁headed":3980,"▁created":3981,"▁nature":3982,"▁edt":3983,"▁acre":3984,"▁trip":3985,"▁trial":3986,"▁mets":3987,"▁vet":3988,"▁somebody":3989,"▁malaysian":3990,"▁facebook":3991,"▁stealing":3992,"atchet":3993,"▁print":3994,"▁itûas":3995,"▁putin":3996,"▁entertain":3997,"▁model":3998,"▁affect":3999,"▁patient":4000,"▁utter":4001,"▁idp":4002,"▁parley":4003,"▁invoice":4004,"▁experience":4005,"ermo":4006,"▁register":4007,"▁cyclist":4008,"ibility":4009,"oooooo":4010,"▁toilet":4011,"▁harry":4012,"▁hung":4013,"▁freed":4014,"▁afternoon":4015,"▁magn":4016,"▁township":4017,"▁drop":4018,"▁dropped":4019,"▁erup":4020,"▁learning":4021,"▁assoc":4022,"▁beyhive":4023,"▁australian":4024,"▁sadly":4025,"▁concern":4026,"▁concert":4027,"▁concerned":4028,"▁bringing":4029,"▁simple":4030,"▁intens":4031,"▁cdc":4032,"▁continues":4033,"▁drinking":4034,"▁advisory":4035,"▁portland":4036,"▁previous":4037,"ronic":4038,"▁tropical":4039,"▁william":4040,"▁arrived":4041,"▁avoiding":4042,"▁mediterran":4043,"polit":4044,"from":4045,"▁throwing":4046,"proof":4047,"▁wmata":4048,"▁replace":4049,"▁kurd":4050,"▁guardian":4051,"▁italian":4052,"bieber":4053,"▁baseball":4054,"▁mumbai":4055,"▁dubstep":4056,"▁lifted":4057,"▁capsizes":4058,"▁stephen":4059,"▁mortal":4060,"▁dollar":4061,"▁apparently":4062,"▁justinbieber":4063,"▁custom":4064,"▁machine":4065,"▁alaska":4066,"▁saturday":4067,"▁including":4068,"▁newyork":4069,"▁execut":4070,"▁enemy":4071,"rescue":4072,"▁aussie":4073,"▁nursing":4074,"▁library":4075,"aur":4076,"bow":4077,"bet":4078,"cont":4079,"dis":4080,"dra":4081,"dom":4082,"eal":4083,"ever":4084,"eem":4085,"fg":4086,"fm":4087,"fore":4088,"god":4089,"gain":4090,"hi":4091,"ho":4092,"hs":4093,"how":4094,"house":4095,"hott":4096,"ias":4097,"iet":4098,"iag":4099,"jp":4100,"jar":4101,"job":4102,"kin":4103,"khan":4104,"lu":4105,"light":4106,"like":4107,"mor":4108,"mel":4109,"matic":4110,"now":4111,"oh":4112,"osh":4113,"ook":4114,"pri":4115,"rat":4116,"run":4117,"sel":4118,"soon":4119,"tr":4120,"tri":4121,"uf":4122,"uct":4123,"va":4124,"vin":4125,"wr":4126,"win":4127,"will":4128,"yi":4129,"yt":4130,"yer":4131,"ìunion":4132,"▁ip":4133,"▁åê":4134,"▁odd":4135,"inf":4136,"ination":4137,"inity":4138,"▁size":4139,"▁soph":4140,"ery":4141,"real":4142,"reci":4143,"▁cit":4144,"▁cream":4145,"▁cute":4146,"▁cbs":4147,"ano":4148,"ania":4149,"online":4150,"▁bol":4151,"▁boun":4152,"▁bare":4153,"▁buck":4154,"▁bene":4155,"▁tag":4156,"▁toll":4157,"▁tub":4158,"▁tube":4159,"▁tool":4160,"▁tough":4161,"▁term":4162,"▁taste":4163,"▁pb":4164,"▁pos":4165,"▁mer":4166,"▁mut":4167,"▁mail":4168,"▁mour":4169,"▁master":4170,"▁mother":4171,"▁mater":4172,"▁mtv":4173,"▁fa":4174,"▁fd":4175,"▁fur":4176,"▁fish":4177,"▁field":4178,"▁dou":4179,"▁dur":4180,"▁dann":4181,"alin":4182,"▁ly":4183,"orp":4184,"orie":4185,"▁how":4186,"▁hip":4187,"▁hous":4188,"▁hyp":4189,"▁ast":4190,"▁ach":4191,"▁aka":4192,"icemoon":4193,"ita":4194,"itive":4195,"▁nj":4196,"▁nar":4197,"▁nur":4198,"▁nine":4199,"ilot":4200,"▁gate":4201,"▁gard":4202,"▁gain":4203,"▁gang":4204,"▁gree":4205,"▁given":4206,"▁gaza":4207,"rove":4208,"oli":4209,"olk":4210,"olate":4211,"▁resh":4212,"els":4213,"ello":4214,"ayn":4215,"uring":4216,"▁stat":4217,"▁style":4218,"▁staff":4219,"▁stuart":4220,"una":4221,"unting":4222,"igger":4223,"▁rider":4224,"▁rìunion":4225,"user":4226,"▁ver":4227,"▁vuit":4228,"iment":4229,"imum":4230,"▁inte":4231,"esus":4232,"▁kh":4233,"▁kat":4234,"▁kam":4235,"▁kas":4236,"▁ther":4237,"▁thats":4238,"agram":4239,"agement":4240,"asty":4241,"ops":4242,"▁chin":4243,"▁chris":4244,"▁chair":4245,"this":4246,"aps":4247,"▁ya":4248,"▁yaz":4249,"▁jenn":4250,"▁july":4251,"sequ":4252,"▁shell":4253,"▁sean":4254,"ulous":4255,"empt":4256,"▁exist":4257,"▁extern":4258,"▁anx":4259,"quis":4260,"▁trad":4261,"▁congress":4262,"▁arch":4263,"▁blk":4264,"▁blame":4265,"▁blvd":4266,"▁alert":4267,"▁albert":4268,"▁league":4269,"▁plug":4270,"aret":4271,"▁trigger":4272,"▁rome":4273,"▁roll":4274,"▁royal":4275,"▁prosec":4276,"▁rare":4277,"ends":4278,"▁manager":4279,"uded":4280,"uren":4281,"▁evil":4282,"▁scar":4283,"▁scary":4284,"▁bec":4285,"azz":4286,"▁univer":4287,"▁focus":4288,"▁heaven":4289,"▁cramer":4290,"▁click":4291,"▁clutch":4292,"▁burst":4293,"▁calorie":4294,"▁attention":4295,"▁energy":4296,"anged":4297,"▁brut":4298,"black":4299,"ports":4300,"▁more":4301,"▁tele":4302,"▁everyday":4303,"▁smell":4304,"▁destiny":4305,"▁drum":4306,"▁joy":4307,"▁josh":4308,"▁grey":4309,"ften":4310,"▁meg":4311,"▁worked":4312,"▁elephant":4313,"itional":4314,"▁needed":4315,"▁remain":4316,"▁remains":4317,"ression":4318,"▁okwx":4319,"▁schedu":4320,"▁appreci":4321,"▁runway":4322,"▁survival":4323,"▁missed":4324,"▁xbox":4325,"▁frank":4326,"▁planet":4327,"▁object":4328,"▁electronic":4329,"▁slip":4330,"▁slightly":4331,"▁recogn":4332,"▁realise":4333,"▁iron":4334,"health":4335,"▁cheese":4336,"▁muse":4337,"▁finn":4338,"▁ended":4339,"▁struck":4340,"▁curved":4341,"▁write":4342,"▁starting":4343,"▁theatre":4344,"▁within":4345,"▁picked":4346,"▁somalia":4347,"▁soundcloud":4348,"▁dragon":4349,"▁dramatic":4350,"▁several":4351,"▁updated":4352,"▁fighter":4353,"obody":4354,"▁prim":4355,"▁prime":4356,"rolight":4357,"▁powerful":4358,"▁powerlines":4359,"▁aware":4360,"▁listening":4361,"▁canaan":4362,"▁meme":4363,"▁artist":4364,"▁patrick":4365,"▁salem":4366,"▁christmas":4367,"▁youve":4368,"▁personal":4369,"▁doctor":4370,"▁regard":4371,"▁relative":4372,"▁iranian":4373,"safe":4374,"▁linkury":4375,"▁chinaûas":4376,"▁syd":4377,"▁syria":4378,"▁senator":4379,"▁defin":4380,"▁defend":4381,"▁justice":4382,"▁society":4383,"▁palm":4384,"▁passing":4385,"▁sunset":4386,"▁asking":4387,"▁threatens":4388,"▁icemoon":4389,"▁icesû":4390,"▁magic":4391,"▁lowly":4392,"tenance":4393,"▁anti":4394,"▁beginning":4395,"▁sanction":4396,"▁micro":4397,"▁microlight":4398,"▁animalrescue":4399,"▁quran":4400,"▁annual":4401,"▁freakiest":4402,"▁neighbor":4403,"▁female":4404,"▁valley":4405,"▁cancel":4406,"▁minecraft":4407,"othes":4408,"▁troop":4409,"▁exchange":4410,"▁political":4411,"▁activity":4412,"▁ugly":4413,"▁fantastic":4414,"▁oppos":4415,"▁crackdown":4416,"▁broadway":4417,"▁terrible":4418,"▁priv":4419,"▁djicemoon":4420,"▁blessing":4421,"▁audio":4422,"▁bathroom":4423,"▁treatment":4424,"shots":4425,"donald":4426,"▁sarah":4427,"▁arabia":4428,"▁youûave":4429,"▁paper":4430,"▁recovery":4431,"▁trapmusic":4432,"▁discovered":4433,"▁environ":4434,"▁surprise":4435,"▁photography":4436,"▁sideline":4437,"▁journal":4438,"▁alleged":4439,"▁festival":4440,"▁jamaica":4441,"▁shelter":4442,"▁incredible":4443,"wfnet":4444,"▁didnt":4445,"▁rapid":4446,"▁kidnapped":4447,"▁automatic":4448,"▁tongue":4449,"▁mhtwfnet":4450,"▁channel":4451,"▁exactly":4452,"▁zombie":4453,"▁mexico":4454,"▁individual":4455,"▁eruption":4456,"hottest":4457,"▁material":4458,"▁vuitton":4459,"▁yazid":4460,"▁universe":4461,"▁schedule":4462,"▁canaanite":4463,"▁environment":4464,"aos":4465,"away":4466,"aign":4467,"big":4468,"bly":4469,"bian":4470,"cas":4471,"ces":4472,"city":4473,"da":4474,"dj":4475,"dr":4476,"dam":4477,"dem":4478,"ech":4479,"fre":4480,"gas":4481,"hod":4482,"hes":4483,"home":4484,"hour":4485,"hai":4486,"hib":4487,"ira":4488,"iated":4489,"jr":4490,"lar":4491,"lic":4492,"mur":4493,"mandy":4494,"not":4495,"night":4496,"nade":4497,"pc":4498,"pat":4499,"pal":4500,"page":4501,"rt":4502,"rin":4503,"sg":4504,"sion":4505,"sand":4506,"summer":4507,"uing":4508,"uana":4509,"wed":4510,"wing":4511,"wolf":4512,"yg":4513,"yro":4514,"yard":4515,"zing":4516,"inel":4517,"inner":4518,"▁sb":4519,"▁sic":4520,"▁satch":4521,"▁santa":4522,"erd":4523,"ering":4524,"▁ct":4525,"▁cy":4526,"▁cig":4527,"▁corn":4528,"▁cous":4529,"▁cred":4530,"▁cuz":4531,"ona":4532,"▁bil":4533,"▁bug":4534,"▁bake":4535,"▁bull":4536,"▁btw":4537,"▁tf":4538,"▁tu":4539,"▁til":4540,"▁tut":4541,"▁tamp":4542,"ately":4543,"▁pa":4544,"▁pt":4545,"▁pen":4546,"▁porn":4547,"▁patch":4548,"▁pts":4549,"▁pipe":4550,"▁pupp":4551,"▁mu":4552,"▁mart":4553,"▁mcc":4554,"▁mma":4555,"▁merc":4556,"▁mental":4557,"ari":4558,"▁fac":4559,"▁fake":4560,"▁farm":4561,"▁div":4562,"▁diving":4563,"▁dvd":4564,"▁duty":4565,"▁lg":4566,"▁lon":4567,"▁lay":4568,"▁lack":4569,"▁lown":4570,"▁less":4571,"▁lower":4572,"▁lorry":4573,"▁lung":4574,"▁wb":4575,"▁wo":4576,"▁wy":4577,"▁wid":4578,"▁waste":4579,"enly":4580,"ency":4581,"▁hd":4582,"▁hack":4583,"▁hann":4584,"▁hang":4585,"▁hole":4586,"▁auction":4587,"lem":4588,"itz":4589,"ites":4590,"itation":4591,"itect":4592,"ities":4593,"▁eas":4594,"▁eight":4595,"▁easter":4596,"▁nb":4597,"▁np":4598,"▁nose":4599,"▁named":4600,"▁ga":4601,"▁gil":4602,"▁gig":4603,"▁golf":4604,"▁gained":4605,"▁ghost":4606,"▁grief":4607,"rod":4608,"rog":4609,"isii":4610,"▁rear":4611,"rail":4612,"omen":4613,"eland":4614,"acing":4615,"oto":4616,"oter":4617,"urned":4618,"▁stun":4619,"▁stir":4620,"▁station":4621,"▁stuck":4622,"▁dear":4623,"▁devel":4624,"igned":4625,"veiled":4626,"▁rh":4627,"▁ri":4628,"▁ran":4629,"▁rally":4630,"▁rick":4631,"usion":4632,"owing":4633,"char":4634,"▁kad":4635,"▁kyle":4636,"▁kisii":4637,"▁there":4638,"agi":4639,"agov":4640,"▁ov":4641,"▁lip":4642,"▁liber":4643,"verse":4644,"htag":4645,"▁chest":4646,"▁chart":4647,"▁ju":4648,"▁jer":4649,"▁jesus":4650,"loving":4651,"ateful":4652,"seh":4653,"sey":4654,"▁shake":4655,"▁shout":4656,"▁shep":4657,"▁shipping":4658,"ula":4659,"ulate":4660,"umper":4661,"iller":4662,"illermo":4663,"▁amster":4664,"shop":4665,"estrian":4666,"estrike":4667,"▁newest":4668,"▁loan":4669,"quest":4670,"▁traff":4671,"onews":4672,"▁convers":4673,"▁fired":4674,"▁blamed":4675,"▁sud":4676,"▁alco":4677,"▁plain":4678,"▁plague":4679,"iped":4680,"▁spider":4681,"▁goog":4682,"▁trick":4683,"▁truly":4684,"ailed":4685,"▁rohing":4686,"herd":4687,"pling":4688,"▁prop":4689,"▁raid":4690,"▁rage":4691,"▁rayn":4692,"phic":4693,"endent":4694,"▁management":4695,"▁weight":4696,"▁beû":4697,"▁pepper":4698,"▁unveiled":4699,"icked":4700,"▁foxt":4701,"▁prefer":4702,"▁bos":4703,"▁boot":4704,"▁boston":4705,"cci":4706,"ccess":4707,"ucks":4708,"▁client":4709,"▁clinton":4710,"▁clothes":4711,"athe":4712,"▁warns":4713,"▁wheav":4714,"▁whats":4715,"▁wheel":4716,"▁built":4717,"▁calum":4718,"▁attempt":4719,"▁known":4720,"blue":4721,"izing":4722,"sonian":4723,"ported":4724,"▁mood":4725,"eep":4726,"▁teacher":4727,"▁homeless":4728,"ampton":4729,"▁smile":4730,"▁abuse":4731,"ogram":4732,"▁looked":4733,"▁jose":4734,"▁grenade":4735,"▁mining":4736,"▁zayn":4737,"▁guillermo":4738,"erno":4739,"▁desp":4740,"▁deser":4741,"▁adam":4742,"▁letter":4743,"▁letûas":4744,"▁indep":4745,"itting":4746,"▁elev":4747,"▁election":4748,"▁grant":4749,"▁upgra":4750,"lands":4751,"▁charging":4752,"▁charles":4753,"iction":4754,"▁reminds":4755,"ecially":4756,"▁officially":4757,"▁readû":4758,"▁scheme":4759,"▁refer":4760,"▁reflect":4761,"▁panther":4762,"▁atm":4763,"▁insp":4764,"▁insane":4765,"▁milk":4766,"▁murdered":4767,"▁murderous":4768,"▁xd":4769,"▁medical":4770,"▁conflict":4771,"bean":4772,"▁slide":4773,"ores":4774,"▁kept":4775,"▁iii":4776,"▁hotel":4777,"▁reality":4778,"ofth":4779,"▁settle":4780,"▁debt":4781,"▁compet":4782,"▁sinjar":4783,"▁statement":4784,"▁edition":4785,"▁editor":4786,"▁crossed":4787,"▁gunfire":4788,"soft":4789,"▁veget":4790,"▁monogram":4791,"▁girlfriend":4792,"▁somehow":4793,"▁gta":4794,"ycat":4795,"ycle":4796,"▁failed":4797,"▁steel":4798,"▁standuser":4799,"▁counter":4800,"▁southern":4801,"▁belong":4802,"▁madinah":4803,"▁holy":4804,"▁holiday":4805,"▁awful":4806,"▁canûat":4807,"▁subject":4808,"▁install":4809,"▁tempor":4810,"▁relax":4811,"▁copilot":4812,"▁copycat":4813,"▁myster":4814,"▁remembering":4815,"ibly":4816,"▁deputy":4817,"flow":4818,"▁address":4819,"▁morgan":4820,"▁abcnews":4821,"hhhh":4822,"▁senior":4823,"▁defense":4824,"▁yea":4825,"▁extra":4826,"▁extremely":4827,"▁present":4828,"▁cleared":4829,"orses":4830,"▁histor":4831,"▁overt":4832,"▁bluejay":4833,"▁tryna":4834,"burn":4835,"▁parker":4836,"▁captain":4837,"▁larger":4838,"▁assist":4839,"▁noah":4840,"insur":4841,"▁purple":4842,"▁study":4843,"▁jones":4844,"▁complex":4845,"▁solar":4846,"▁nytimes":4847,"▁growing":4848,"▁sexual":4849,"▁covered":4850,"▁generation":4851,"hammad":4852,"▁daniel":4853,"▁rising":4854,"ification":4855,"network":4856,"▁olymp":4857,"▁floyd":4858,"▁condem":4859,"▁advance":4860,"▁button":4861,"▁maintenance":4862,"▁detail":4863,"▁equal":4864,"▁torch":4865,"▁toronto":4866,"▁piling":4867,"▁value":4868,"▁honor":4869,"▁james":4870,"iversity":4871,"▁towel":4872,"▁authority":4873,"▁arrive":4874,"▁cele":4875,"▁chicagoarea":4876,"▁distance":4877,"▁gotten":4878,"▁blessed":4879,"▁maximum":4880,"▁describ":4881,"▁description":4882,"▁iûam":4883,"parractor":4884,"▁origin":4885,"▁motorcycle":4886,"▁yaho":4887,"▁disappear":4888,"▁residential":4889,"▁italy":4890,"▁igers":4891,"▁sparked":4892,"▁admits":4893,"▁europe":4894,"▁prophetmu":4895,"▁croat":4896,"▁battery":4897,"▁dorret":4898,"▁especially":4899,"radio":4900,"▁sharp":4901,"▁demonst":4902,"▁ultimate":4903,"▁mikeparractor":4904,"▁langu":4905,"▁averted":4906,"▁jewish":4907,"▁buffalo":4908,"▁collection":4909,"▁byû":4910,"▁bottom":4911,"▁tennesse":4912,"▁trailer":4913,"▁connector":4914,"▁unlocked":4915,"▁meatloving":4916,"▁ferguson":4917,"▁crowd":4918,"▁challenge":4919,"▁spinning":4920,"▁disrupts":4921,"▁rolling":4922,"bhu":4923,"▁iphone":4924,"▁pocket":4925,"▁vinyl":4926,"▁vulner":4927,"▁september":4928,"▁anchorage":4929,"▁commercial":4930,"▁surrounded":4931,"▁zionist":4932,"▁recommend":4933,"▁entertainment":4934,"▁hungry":4935,"▁freedom":4936,"▁associated":4937,"▁intensity":4938,"politics":4939,"▁executive":4940,"▁tubestrike":4941,"▁mtvhottest":4942,"▁nurse":4943,"▁garden":4944,"▁integr":4945,"▁chinese":4946,"▁external":4947,"▁traditional":4948,"▁triggered":4949,"▁prosecuted":4950,"▁finnish":4951,"▁sicily":4952,"▁satchel":4953,"▁cousin":4954,"▁ptsd":4955,"▁lowndes":4956,"▁lesson":4957,"▁shepherd":4958,"▁amsterdam":4959,"▁conversation":4960,"▁alcohol":4961,"▁rohingya":4962,"▁foxtrot":4963,"▁wheavenly":4964,"▁mystery":4965,"▁bluejays":4966,"▁prophetmuhammad":4967,"1⁄":4968,"aire":4969,"bon":4970,"bat":4971,"ben":4972,"bel":4973,"bid":4974,"bad":4975,"bus":4976,"blo":4977,"bott":4978,"brown":4979,"cann":4980,"cket":4981,"cement":4982,"ded":4983,"dot":4984,"eing":4985,"fat":4986,"fate":4987,"founder":4988,"gar":4989,"gun":4990,"game":4991,"green":4992,"hot":4993,"hell":4994,"haz":4995,"horn":4996,"happ":4997,"iû":4998,"iop":4999,"jc":5000,"kl":5001,"ky":5002,"kle":5003,"lt":5004,"lon":5005,"low":5006,"lish":5007,"law":5008,"layer":5009,"mg":5010,"mo":5011,"mat":5012,"men":5013,"may":5014,"make":5015,"miss":5016,"nor":5017,"nation":5018,"nie":5019,"nûat":5020,"oj":5021,"offic":5022,"pan":5023,"part":5024,"porn":5025,"press":5026,"pool":5027,"psy":5028,"rc":5029,"ril":5030,"sd":5031,"sx":5032,"sen":5033,"squ":5034,"sale":5035,"sûa":5036,"senal":5037,"to":5038,"talk":5039,"ua":5040,"ura":5041,"uet":5042,"vr":5043,"vad":5044,"with":5045,"yptic":5046,"zs":5047,"▁ì":5048,"▁ire":5049,"▁error":5050,"▁ode":5051,"inion":5052,"▁sail":5053,"▁sym":5054,"▁sorrow":5055,"eral":5056,"erog":5057,"eriff":5058,"▁cb":5059,"▁cod":5060,"▁cad":5061,"▁cand":5062,"▁cia":5063,"▁cub":5064,"▁cec":5065,"▁cert":5066,"anut":5067,"ancy":5068,"▁ba":5069,"▁bon":5070,"▁bid":5071,"▁bok":5072,"▁bund":5073,"▁brian":5074,"▁bird":5075,"▁brief":5076,"▁bjp":5077,"▁tl":5078,"▁tan":5079,"▁tide":5080,"▁tum":5081,"▁troy":5082,"▁tune":5083,"▁trem":5084,"▁tbt":5085,"▁tiny":5086,"atory":5087,"▁pp":5088,"▁pin":5089,"▁pit":5090,"▁pis":5091,"▁pul":5092,"▁pant":5093,"▁push":5094,"▁pers":5095,"▁penn":5096,"▁pizz":5097,"▁penal":5098,"▁mk":5099,"▁mm":5100,"▁mn":5101,"▁mit":5102,"▁mol":5103,"▁mand":5104,"▁mum":5105,"▁mall":5106,"▁msf":5107,"ara":5108,"▁faced":5109,"▁fwy":5110,"▁dk":5111,"▁dl":5112,"▁dall":5113,"▁dare":5114,"▁duck":5115,"▁dress":5116,"▁dope":5117,"▁dutch":5118,"ings":5119,"ingham":5120,"ali":5121,"alid":5122,"alie":5123,"alsp":5124,"stain":5125,"strike":5126,"▁len":5127,"▁lam":5128,"▁lul":5129,"▁lunch":5130,"ora":5131,"orc":5132,"oring":5133,"oria":5134,"orious":5135,"ories":5136,"▁ws":5137,"▁was":5138,"▁wet":5139,"▁witness":5140,"▁wither":5141,"▁wolf":5142,"▁walm":5143,"▁wrap":5144,"▁hr":5145,"▁hal":5146,"▁horn":5147,"▁hmm":5148,"▁huh":5149,"▁hatchet":5150,"▁ay":5151,"ices":5152,"ician":5153,"iculous":5154,"lee":5155,"leg":5156,"leton":5157,"ito":5158,"itely":5159,"oura":5160,"▁ef":5161,"▁eh":5162,"▁eth":5163,"▁egy":5164,"▁egg":5165,"▁nail":5166,"▁nike":5167,"▁nuke":5168,"▁nobody":5169,"▁gab":5170,"▁gym":5171,"▁gift":5172,"▁gps":5173,"roit":5174,"isl":5175,"olt":5176,"▁reid":5177,"▁rece":5178,"▁reward":5179,"▁reject":5180,"▁reno":5181,"rah":5182,"raid":5183,"raine":5184,"rakhan":5185,"oms":5186,"eld":5187,"ames":5188,"amity":5189,"idal":5190,"iddle":5191,"acle":5192,"acity":5193,"oted":5194,"urricane":5195,"kee":5196,"kes":5197,"▁streak":5198,"▁deck":5199,"iger":5200,"igation":5201,"ask":5202,"aded":5203,"ented":5204,"▁rating":5205,"ette":5206,"▁viv":5207,"imated":5208,"chan":5209,"chase":5210,"▁inev":5211,"▁nec":5212,"▁nema":5213,"▁ku":5214,"▁thed":5215,"▁this":5216,"▁thus":5217,"▁thru":5218,"▁thisis":5219,"irk":5220,"aging":5221,"▁oops":5222,"▁often":5223,"lyphic":5224,"▁liz":5225,"vert":5226,"verty":5227,"▁cher":5228,"▁chel":5229,"▁chop":5230,"▁chick":5231,"▁chase":5232,"▁chaos":5233,"apy":5234,"aped":5235,"aping":5236,"▁yay":5237,"▁ja":5238,"▁jake":5239,"▁jump":5240,"▁shanta":5241,"▁section":5242,"eman":5243,"shole":5244,"▁newly":5245,"▁log":5246,"▁looting":5247,"▁example":5248,"▁anal":5249,"▁ankle":5250,"quar":5251,"iego":5252,"▁consequ":5253,"▁fireman":5254,"▁arg":5255,"▁ariz":5256,"▁arsenal":5257,"▁blake":5258,"▁blind":5259,"▁sustain":5260,"▁alp":5261,"▁ally":5262,"▁altern":5263,"▁alright":5264,"ably":5265,"ability":5266,"▁leaf":5267,"▁worried":5268,"▁pls":5269,"▁plot":5270,"▁plate":5271,"ips":5272,"▁speed":5273,"nings":5274,"attack":5275,"attoo":5276,"olland":5277,"ifer":5278,"iform":5279,"▁role":5280,"elling":5281,"oky":5282,"▁rape":5283,"iang":5284,"usting":5285,"▁mansion":5286,"▁manseh":5287,"ives":5288,"▁wee":5289,"▁weed":5290,"▁webs":5291,"▁cofounder":5292,"ivity":5293,"▁evidence":5294,"▁scot":5295,"▁scient":5296,"▁beam":5297,"▁peanut":5298,"azi":5299,"▁ûpolitics":5300,"▁unsafe":5301,"▁university":5302,"▁uniform":5303,"▁fool":5304,"▁preview":5305,"▁heal":5306,"ession":5307,"essary":5308,"aha":5309,"ahurricane":5310,"cycl":5311,"arym":5312,"osen":5313,"▁hierog":5314,"▁quality":5315,"▁warm":5316,"▁warned":5317,"▁whale":5318,"▁whether":5319,"▁calamity":5320,"▁attend":5321,"▁bride":5322,"▁bright":5323,"▁surf":5324,"ocent":5325,"▁usual":5326,"▁usagov":5327,"▁cave":5328,"▁crit":5329,"▁cricket":5330,"▁mock":5331,"▁imm":5332,"▁tea":5333,"▁everyones":5334,"▁marine":5335,"▁twia":5336,"▁smash":5337,"▁smith":5338,"▁smoking":5339,"▁server":5340,"▁serial":5341,"▁contem":5342,"▁contact":5343,"▁contrib":5344,"▁reduced":5345,"ucation":5346,"▁demand":5347,"▁greg":5348,"▁explo":5349,"▁earner":5350,"▁pov":5351,"▁poverty":5352,"▁measure":5353,"▁lethal":5354,"rict":5355,"rican":5356,"achi":5357,"▁email":5358,"ordan":5359,"▁grateful":5360,"armed":5361,"arming":5362,"▁northwest":5363,"core":5364,"▁legal":5365,"▁legit":5366,"▁perman":5367,"▁diet":5368,"▁diffic":5369,"▁playoff":5370,"▁fucked":5371,"▁okan":5372,"▁horrif":5373,"▁orch":5374,"▁orange":5375,"▁served":5376,"▁afraid":5377,"▁apple":5378,"▁runner":5379,"▁active":5380,"▁actual":5381,"▁medic":5382,"▁injuryi":5383,"▁reporting":5384,"▁slam":5385,"▁recipe":5386,"▁iam":5387,"▁asap":5388,"▁asian":5389,"▁asshole":5390,"▁realized":5391,"▁blackberry":5392,"▁quarter":5393,"ucha":5394,"▁irish":5395,"omics":5396,"▁casper":5397,"▁upper":5398,"▁cityof":5399,"ancer":5400,"anced":5401,"otte":5402,"otten":5403,"▁anyway":5404,"▁ell":5405,"expl":5406,"▁skill":5407,"▁partic":5408,"▁partner":5409,"▁strange":5410,"▁stranded":5411,"▁writer":5412,"▁written":5413,"▁startup":5414,"▁education":5415,"▁ûïthe":5416,"▁highest":5417,"▁hurrican":5418,"▁trib":5419,"▁method":5420,"▁capital":5421,"▁hopefully":5422,"åêm":5423,"▁investigation":5424,"▁barack":5425,"▁bargain":5426,"▁opened":5427,"▁opinion":5428,"▁childhood":5429,"▁tony":5430,"▁drawn":5431,"queen":5432,"▁epile":5433,"▁summerfate":5434,"tech":5435,"▁counsel":5436,"▁prince":5437,"▁humid":5438,"▁putting":5439,"▁internal":5440,"▁violence":5441,"ysis":5442,"▁brake":5443,"▁memorial":5444,"▁transf":5445,"▁wholesale":5446,"▁breakingnews":5447,"▁explosionproof":5448,"uthor":5449,"▁grace":5450,"▁grade":5451,"▁instagram":5452,"▁idk":5453,"▁banglad":5454,"▁invalid":5455,"▁starring":5456,"▁experiment":5457,"▁radar":5458,"▁winter":5459,"▁aggress":5460,"comm":5461,"ovo":5462,"oval":5463,"▁collisionno":5464,"▁campus":5465,"▁campaign":5466,"▁mido":5467,"▁depth":5468,"▁decided":5469,"▁harper":5470,"▁retweet":5471,"▁victory":5472,"▁musician":5473,"web":5474,"weather":5475,"▁senate":5476,"▁telling":5477,"▁silent":5478,"▁direct":5479,"▁threatening":5480,"▁viralsp":5481,"▁drove":5482,"▁wondering":5483,"▁wonderful":5484,"▁hughes":5485,"▁blocking":5486,"▁paint":5487,"▁messenger":5488,"▁americaûas":5489,"▁simulate":5490,"▁restore":5491,"▁restaur":5492,"▁classic":5493,"▁solution":5494,"onsor":5495,"▁occasion":5496,"▁providence":5497,"▁safer":5498,"▁singing":5499,"▁michigan":5500,"▁philly":5501,"▁allowed":5502,"▁soft":5503,"▁lauren":5504,"▁auto":5505,"▁estate":5506,"▁estimated":5507,"▁richard":5508,"▁tracking":5509,"▁socialnews":5510,"▁flew":5511,"▁detect":5512,"▁detroit":5513,"▁åè":5514,"▁combined":5515,"▁younghero":5516,"▁coastal":5517,"▁emotionally":5518,"▁bedroom":5519,"▁excell":5520,"▁reportedly":5521,"▁palestine":5522,"▁sentinel":5523,"▁sittwe":5524,"olution":5525,"haust":5526,"▁willing":5527,"▁politics":5528,"▁activated":5529,"▁gtgtgt":5530,"smith":5531,"▁ugh":5532,"▁pulled":5533,"▁falcon":5534,"ography":5535,"▁perform":5536,"▁responds":5537,"▁protector":5538,"iatric":5539,"poli":5540,"ricktri":5541,"▁terrif":5542,"▁railway":5543,"▁titan":5544,"▁title":5545,"▁taxi":5546,"▁amongst":5547,"▁losing":5548,"boro":5549,"▁include":5550,"▁kicked":5551,"▁yobe":5552,"▁profile":5553,"▁maryland":5554,"▁yahoo":5555,"▁speaking":5556,"▁disappoint":5557,"▁strategic":5558,"burgh":5559,"www":5560,"▁mlb":5561,"▁naved":5562,"▁ridiculous":5563,"▁thriller":5564,"heart":5565,"▁bowl":5566,"▁darude":5567,"▁germany":5568,"▁julie":5569,"▁suffering":5570,"▁predicted":5571,"▁surprised":5572,"▁swimming":5573,"▁increased":5574,"▁cleanup":5575,"▁jacksonville":5576,"door":5577,"weets":5578,"▁clearly":5579,"▁flying":5580,"▁laugh":5581,"▁laughing":5582,"▁nasahurricane":5583,"▁judge":5584,"▁electrical":5585,"▁tempered":5586,"▁considering":5587,"walker":5588,"▁battling":5589,"▁random":5590,"▁encoura":5591,"▁charlie":5592,"▁correction":5593,"▁towards":5594,"▁multiple":5595,"▁multiplayer":5596,"wolves":5597,"▁trolley":5598,"▁pillow":5599,"▁pipeline":5600,"▁fifth":5601,"▁wearing":5602,"▁wouldve":5603,"▁hashtag":5604,"▁huffman":5605,"▁stabbing":5606,"▁innocent":5607,"▁kerricktri":5608,"▁ofû":5609,"▁romance":5610,"▁physical":5611,"▁democracy":5612,"▁responsible":5613,"▁forbes":5614,"▁agreed":5615,"▁revealed":5616,"▁summ":5617,"▁pedestrian":5618,"▁pacific":5619,"▁lmfao":5620,"▁normal":5621,"aylor":5622,"▁spanish":5623,"▁becomes":5624,"▁magnum":5625,"▁williams":5626,"▁sophie":5627,"▁bounty":5628,"▁mourning":5629,"▁doubt":5630,"▁housing":5631,"▁greece":5632,"▁status":5633,"▁therapy":5634,"▁architect":5635,"▁alberta":5636,"▁became":5637,"▁recognize":5638,"▁museum":5639,"▁sydney":5640,"▁definitely":5641,"▁microsoft":5642,"▁rapidly":5643,"patience":5644,"▁corner":5645,"▁tutorial":5646,"▁puppy":5647,"▁lgbt":5648,"▁lonely":5649,"▁easily":5650,"▁eastern":5651,"▁griefûa":5652,"▁develop":5653,"▁kaduna":5654,"▁trafford":5655,"▁sudden":5656,"▁google":5657,"▁elevated":5658,"▁pantherattack":5659,"▁temporary":5660,"insurance":5661,"▁olympic":5662,"▁language":5663,"▁tennessee":5664,"1⁄4":5665,"▁odeon":5666,"▁penalty":5667,"▁dallas":5668,"▁walmart":5669,"▁egypt":5670,"▁gabon":5671,"▁inevit":5672,"▁consequence":5673,"▁mansehra":5674,"▁website":5675,"▁scientist":5676,"▁hieroglyphic":5677,"▁smithsonian":5678,"▁counselor":5679,"▁bangladesh":5680,"▁viralspell":5681,"▁restaurant":5682,"▁youngheroesid":5683,"▁strategicpatience":5684,"▁kerricktrial":5685,"aine":5686,"bin":5687,"bed":5688,"bate":5689,"bear":5690,"best":5691,"bake":5692,"bine":5693,"bage":5694,"born":5695,"biz":5696,"bach":5697,"based":5698,"bgt":5699,"cg":5700,"cow":5701,"cap":5702,"case":5703,"coc":5704,"dar":5705,"daily":5706,"eh":5707,"eared":5708,"fp":5709,"fr":5710,"fam":5711,"fund":5712,"fact":5713,"food":5714,"fox":5715,"gz":5716,"gil":5717,"ges":5718,"gged":5719,"good":5720,"gement":5721,"gusting":5722,"hom":5723,"hill":5724,"hann":5725,"haps":5726,"iar":5727,"iod":5728,"ios":5729,"iber":5730,"ibe":5731,"ienc":5732,"iracy":5733,"jw":5734,"jet":5735,"jab":5736,"kan":5737,"kat":5738,"lol":5739,"lab":5740,"long":5741,"mir":5742,"mill":5743,"mine":5744,"made":5745,"mne":5746,"mark":5747,"mbly":5748,"nw":5749,"non":5750,"nat":5751,"oy":5752,"oz":5753,"oil":5754,"ois":5755,"over":5756,"pn":5757,"pack":5758,"pher":5759,"pos":5760,"pict":5761,"park":5762,"rig":5763,"rim":5764,"ridge":5765,"sim":5766,"sby":5767,"slove":5768,"tor":5769,"tid":5770,"uu":5771,"uise":5772,"vc":5773,"vi":5774,"vity":5775,"vine":5776,"video":5777,"wp":5778,"wis":5779,"ware":5780,"wise":5781,"wister":5782,"wich":5783,"water":5784,"warming":5785,"xyy":5786,"yr":5787,"young":5788,"zu":5789,"ìn":5790,"ì1⁄4":5791,"ûó":5792,"▁ou":5793,"▁if":5794,"▁ath":5795,"▁ident":5796,"▁ont":5797,"▁vest":5798,"ini":5799,"inm":5800,"inston":5801,"inburgh":5802,"▁sg":5803,"▁sx":5804,"▁sû":5805,"▁sant":5806,"▁soo":5807,"erj":5808,"erv":5809,"rec":5810,"▁cot":5811,"▁cell":5812,"▁cens":5813,"▁cord":5814,"▁cnews":5815,"▁code":5816,"▁cuff":5817,"▁cunt":5818,"anet":5819,"anston":5820,"ansea":5821,"onk":5822,"▁bg":5823,"▁bh":5824,"▁bp":5825,"▁ber":5826,"▁bff":5827,"▁born":5828,"▁bite":5829,"▁bash":5830,"▁bother":5831,"▁byp":5832,"▁bik":5833,"▁border":5834,"eden":5835,"edig":5836,"▁tb":5837,"▁tt":5838,"▁tak":5839,"▁tfl":5840,"▁tattoo":5841,"atin":5842,"▁pd":5843,"▁ps":5844,"▁pad":5845,"▁pound":5846,"▁pace":5847,"▁pond":5848,"▁pix":5849,"▁pope":5850,"▁pier":5851,"▁ment":5852,"▁mate":5853,"▁mull":5854,"▁mitt":5855,"▁mama":5856,"arc":5857,"aro":5858,"aring":5859,"arson":5860,"ario":5861,"▁fb":5862,"▁fi":5863,"▁fig":5864,"▁fad":5865,"▁fate":5866,"▁fart":5867,"▁faster":5868,"▁fred":5869,"▁file":5870,"▁fishing":5871,"▁ferry":5872,"▁fett":5873,"▁fbi":5874,"▁dq":5875,"▁dw":5876,"▁dat":5877,"▁dum":5878,"▁dant":5879,"▁dip":5880,"▁doug":5881,"▁dual":5882,"▁dock":5883,"▁dating":5884,"▁dubl":5885,"▁dumb":5886,"▁drew":5887,"▁dirt":5888,"▁dinner":5889,"ingû":5890,"alle":5891,"stal":5892,"stic":5893,"stop":5894,"state":5895,"stown":5896,"style":5897,"▁lv":5898,"▁lis":5899,"▁lind":5900,"▁lyn":5901,"▁luke":5902,"▁lgl":5903,"▁wi":5904,"▁wal":5905,"▁wit":5906,"▁wht":5907,"▁wast":5908,"▁watt":5909,"▁wicked":5910,"enry":5911,"▁ht":5912,"▁hou":5913,"▁hid":5914,"▁hig":5915,"▁hab":5916,"▁hated":5917,"▁hai":5918,"▁hoe":5919,"▁honey":5920,"▁hitting":5921,"▁holland":5922,"▁aa":5923,"▁az":5924,"▁ace":5925,"▁aber":5926,"iced":5927,"icated":5928,"lete":5929,"itish":5930,"itty":5931,"itute":5932,"itlin":5933,"ouver":5934,"ouma":5935,"▁ee":5936,"▁eq":5937,"▁es":5938,"▁eating":5939,"▁nl":5940,"▁nic":5941,"▁nom":5942,"▁nug":5943,"▁nos":5944,"▁nost":5945,"▁nude":5946,"▁nik":5947,"▁nfl":5948,"▁niece":5949,"▁nsf":5950,"▁nasty":5951,"ilth":5952,"ilsh":5953,"ilty":5954,"iloot":5955,"▁gg":5956,"▁gh":5957,"▁gi":5958,"▁gp":5959,"▁gad":5960,"▁gear":5961,"▁gall":5962,"ros":5963,"rock":5964,"rolo":5965,"isk":5966,"olence":5967,"olina":5968,"▁reap":5969,"▁reven":5970,"▁rexyy":5971,"rast":5972,"rament":5973,"raction":5974,"omp":5975,"elin":5976,"elle":5977,"elion":5978,"americ":5979,"ionship":5980,"▁ster":5981,"▁stew":5982,"▁stere":5983,"▁styl":5984,"unately":5985,"ige":5986,"igence":5987,"odes":5988,"vey":5989,"enture":5990,"▁rv":5991,"▁ring":5992,"▁ride":5993,"▁rum":5994,"▁rush":5995,"▁rank":5996,"▁range":5997,"▁ryan":5998,"uses":5999,"etic":6000,"etime":6001,"ethe":6002,"etlife":6003,"▁var":6004,"▁ven":6005,"▁vip":6006,"▁vick":6007,"▁vamp":6008,"▁vint":6009,"▁vanc":6010,"▁vision":6011,"▁vocal":6012,"▁verm":6013,"▁vital":6014,"▁voter":6015,"imen":6016,"ches":6017,"chlic":6018,"▁ink":6019,"▁init":6020,"▁inning":6021,"▁neither":6022,"▁ky":6023,"▁kot":6024,"▁kab":6025,"▁kash":6026,"▁kore":6027,"▁kenn":6028,"▁kca":6029,"▁kinder":6030,"▁karym":6031,"▁thor":6032,"▁thes":6033,"▁thee":6034,"▁thirst":6035,"▁third":6036,"ages":6037,"aguing":6038,"▁oak":6039,"▁opt":6040,"▁overn":6041,"▁chew":6042,"▁chain":6043,"▁choc":6044,"▁choo":6045,"▁choking":6046,"▁changed":6047,"thew":6048,"▁yem":6049,"▁youn":6050,"▁yug":6051,"▁jr":6052,"▁jun":6053,"▁jas":6054,"▁jess":6055,"▁jax":6056,"▁jason":6057,"▁jazz":6058,"▁jordan":6059,"loyd":6060,"sex":6061,"sembly":6062,"▁shang":6063,"▁shared":6064,"▁sheer":6065,"uto":6066,"utton":6067,"▁sequ":6068,"rior":6069,"riot":6070,"uls":6071,"umn":6072,"ems":6073,"emar":6074,"ffur":6075,"ounter":6076,"antic":6077,"illion":6078,"▁amir":6079,"shit":6080,"shire":6081,"estic":6082,"estyle":6083,"estpict":6084,"▁logo":6085,"▁logic":6086,"ista":6087,"istle":6088,"orman":6089,"aku":6090,"▁exerc":6091,"▁ange":6092,"▁anna":6093,"▁anger":6094,"ieg":6095,"▁conv":6096,"▁conser":6097,"▁argent":6098,"▁blks":6099,"▁bluet":6100,"▁suv":6101,"▁supre":6102,"▁success":6103,"▁alien":6104,"abad":6105,"▁leo":6106,"▁lez":6107,"▁leak":6108,"▁plaguing":6109,"ipper":6110,"ipitation":6111,"▁sput":6112,"▁spend":6113,"▁spain":6114,"▁spending":6115,"▁spread":6116,"▁sprin":6117,"attan":6118,"▁disp":6119,"ollow":6120,"▁rocket":6121,"ortion":6122,"pledig":6123,"avis":6124,"elled":6125,"▁probe":6126,"▁race":6127,"▁rapper":6128,"▁ramag":6129,"india":6130,"phis":6131,"phone":6132,"iance":6133,"usty":6134,"ustration":6135,"endency":6136,"ubb":6137,"udd":6138,"uds":6139,"▁cooper":6140,"ivan":6141,"ryl":6142,"▁scare":6143,"▁score":6144,"▁beer":6145,"▁beck":6146,"▁before":6147,"pping":6148,"pport":6149,"▁peep":6150,"▁resource":6151,"▁ûext":6152,"▁unaw":6153,"▁unkn":6154,"▁unhapp":6155,"arts":6156,"▁foster":6157,"owns":6158,"▁pregn":6159,"▁height":6160,"ahu":6161,"▁boom":6162,"▁bored":6163,"cca":6164,"uckdc":6165,"▁flow":6166,"▁flip":6167,"▁flower":6168,"▁clay":6169,"▁clue":6170,"▁clash":6171,"▁climb":6172,"▁que":6173,"athy":6174,"▁warn":6175,"▁warfight":6176,"▁whit":6177,"▁whao":6178,"▁knox":6179,"aneous":6180,"gener":6181,"▁ens":6182,"▁enjo":6183,"anglu":6184,"▁bron":6185,"▁brand":6186,"acey":6187,"▁famous":6188,"▁surge":6189,"▁surface":6190,"▁carl":6191,"▁ush":6192,"▁caution":6193,"▁caitlin":6194,"izen":6195,"▁crater":6196,"onday":6197,"▁flooded":6198,"eeee":6199,"▁immed":6200,"▁feeding":6201,"▁marvel":6202,"▁marij":6203,"▁married":6204,"▁twin":6205,"▁attacking":6206,"ampw":6207,"▁smart":6208,"▁accused":6209,"▁accuses":6210,"▁abus":6211,"▁ability":6212,"▁abortion":6213,"▁redeem":6214,"▁redlight":6215,"▁joel":6216,"▁backyard":6217,"▁worldnet":6218,"active":6219,"▁greet":6220,"▁minor":6221,"▁minority":6222,"▁zar":6223,"▁zim":6224,"▁zouma":6225,"▁earring":6226,"▁derby":6227,"apping":6228,"▁guilty":6229,"ernan":6230,"▁meal":6231,"▁meant":6232,"▁mega":6233,"▁mechan":6234,"▁outdoor":6235,"▁swe":6236,"▁swing":6237,"▁swell":6238,"▁sweat":6239,"▁swansea":6240,"▁letting":6241,"▁wanting":6242,"▁indones":6243,"nik":6244,"rich":6245,"ricted":6246,"aching":6247,"▁derails":6248,"▁emily":6249,"▁elem":6250,"▁grande":6251,"arma":6252,"▁deliver":6253,"▁legend":6254,"iles":6255,"▁soup":6256,"▁perhaps":6257,"▁diver":6258,"▁interse":6259,"▁landfall":6260,"▁lightening":6261,"▁charger":6262,"▁remo":6263,"▁reminder":6264,"rence":6265,"render":6266,"▁explains":6267,"▁raining":6268,"▁refuse":6269,"oodle":6270,"▁inspect":6271,"▁turbine":6272,"▁xp":6273,"▁planning":6274,"veland":6275,"bez":6276,"beast":6277,"▁slanglu":6278,"▁recent":6279,"▁recently":6280,"▁keith":6281,"▁hosting":6282,"▁ik":6283,"▁iw":6284,"rophy":6285,"▁japìn":6286,"▁asia":6287,"▁asleep":6288,"▁realize":6289,"▁realdonald":6290,"▁forward":6291,"▁longest":6292,"hele":6293,"▁casual":6294,"unko":6295,"▁heading":6296,"▁headphone":6297,"▁uh":6298,"ancis":6299,"▁muscle":6300,"▁fallen":6301,"▁anybody":6302,"airs":6303,"scious":6304,"▁photoshop":6305,"▁driven":6306,"▁aven":6307,"▁sinc":6308,"▁columb":6309,"▁note":6310,"▁notification":6311,"▁eden":6312,"▁edinburgh":6313,"▁english":6314,"▁posted":6315,"▁ûïa":6316,"▁ûïwe":6317,"▁theory":6318,"conn":6319,"connect":6320,"▁acid":6321,"▁acqu":6322,"▁accept":6323,"▁infect":6324,"▁triple":6325,"▁tripledig":6326,"▁centiped":6327,"▁capacity":6328,"▁vega":6329,"▁prabhu":6330,"▁monkey":6331,"▁monitor":6332,"▁monsoon":6333,"▁ebike":6334,"▁betray":6335,"▁opus":6336,"▁drag":6337,"▁gameplay":6338,"elfare":6339,"▁waimate":6340,"▁steam":6341,"▁commit":6342,"▁committ":6343,"▁southeast":6344,"▁southampton":6345,"obot":6346,"aaa":6347,"▁urgent":6348,"▁uribe":6349,"▁checked":6350,"gtgt":6351,"▁its":6352,"▁item":6353,"▁sandiego":6354,"▁battleship":6355,"▁madison":6356,"▁listed":6357,"▁signific":6358,"▁modi":6359,"▁specif":6360,"▁specific":6361,"▁specimen":6362,"▁rockin":6363,"▁brad":6364,"▁brave":6365,"▁braking":6366,"▁affil":6367,"▁ohh":6368,"▁transit":6369,"▁selfie":6370,"▁selfies":6371,"▁pattern":6372,"▁patriot":6373,"brid":6374,"▁gray":6375,"▁grazed":6376,"▁marketing":6377,"▁idc":6378,"▁idiot":6379,"▁idfire":6380,"▁paramed":6381,"▁friendship":6382,"▁follows":6383,"rametlife":6384,"▁starter":6385,"▁christie":6386,"▁experienc":6387,"▁regular":6388,"▁relation":6389,"▁winston":6390,"▁agent":6391,"otech":6392,"▁imposs":6393,"▁impressed":6394,"▁improve":6395,"▁remembered":6396,"iban":6397,"▁trend":6398,"▁faroe":6399,"▁farrakhan":6400,"▁dependency":6401,"▁apocalyptic":6402,"aura":6403,"tschlic":6404,"▁sending":6405,"▁decide":6406,"▁supervis":6407,"▁toe":6408,"▁tox":6409,"▁moth":6410,"▁motiv":6411,"▁haram":6412,"▁harbor":6413,"▁returned":6414,"▁hunger":6415,"▁belief":6416,"▁footage":6417,"john":6418,"white":6419,"▁omfg":6420,"▁silence":6421,"▁passed":6422,"▁underway":6423,"▁underground":6424,"peace":6425,"▁clev":6426,"▁cleveland":6427,"▁director":6428,"linson":6429,"▁walker":6430,"▁movement":6431,"▁marked":6432,"▁meaning":6433,"▁icym":6434,"▁washed":6435,"▁hahahah":6436,"▁striker":6437,"▁tryout":6438,"▁peaceful":6439,"debate":6440,"▁parking":6441,"▁captured":6442,"swinston":6443,"▁painting":6444,"▁largest":6445,"▁leveled":6446,"uzz":6447,"▁saddle":6448,"▁closure":6449,"▁noise":6450,"▁offensiveûa":6451,"▁brings":6452,"mmm":6453,"▁simp":6454,"itsnews":6455,"▁restricted":6456,"▁frontline":6457,"▁factor":6458,"▁factory":6459,"▁occup":6460,"wards":6461,"▁crystal":6462,"▁michele":6463,"▁jean":6464,"▁jeff":6465,"▁worstsummer":6466,"▁majority":6467,"▁benj":6468,"▁floated":6469,"▁kingdom":6470,"▁launch":6471,"▁continued":6472,"▁interested":6473,"▁billion":6474,"▁numbered":6475,"▁davidv":6476,"▁combat":6477,"▁yorker":6478,"▁propertycas":6479,"gray":6480,"graph":6481,"▁excited":6482,"▁excuse":6483,"▁eventually":6484,"▁resulted":6485,"▁carryi":6486,"▁nigeria":6487,"▁boxer":6488,"▁johnson":6489,"▁specialist":6490,"▁cameron":6491,"ukes":6492,"▁author":6493,"▁feature":6494,"▁activates":6495,"▁targeting":6496,"support":6497,"▁uganda":6498,"▁hillary":6499,"▁device":6500,"▁oppression":6501,"▁expecting":6502,"▁involved":6503,"▁michaelsos":6504,"desk":6505,"▁buddy":6506,"▁prior":6507,"▁priority":6508,"▁miami":6509,"▁votejk":6510,"▁produced":6511,"▁product":6512,"▁african":6513,"affair":6514,"▁limit":6515,"▁gmt":6516,"iphop":6517,"▁iûave":6518,"friends":6519,"sky":6520,"▁bicycle":6521,"▁tuned":6522,"▁audience":6523,"ularly":6524,"▁localarson":6525,"▁profit":6526,"▁rockyfire":6527,"▁understanding":6528,"▁haunting":6529,"▁replacing":6530,"▁kurtschlic":6531,"▁constantly":6532,"▁speaker":6533,"▁screenshots":6534,"▁forgot":6535,"▁forgotten":6536,"▁sixth":6537,"resistant":6538,"▁nicki":6539,"▁reaching":6540,"▁arabian":6541,"▁empty":6542,"▁entered":6543,"metro":6544,"▁gusty":6545,"rainstorm":6546,"▁planted":6547,"▁discovery":6548,"▁premier":6549,"▁increase":6550,"▁certainly":6551,"▁mistake":6552,"▁average":6553,"▁nasa":6554,"▁network":6555,"▁vacant":6556,"▁locke":6557,"▁location":6558,"▁alleg":6559,"▁compliant":6560,"▁enjoyed":6561,"▁atlanta":6562,"▁skinny":6563,"▁bulletin":6564,"▁cnbc":6565,"▁circ":6566,"▁cabin":6567,"▁cupcake":6568,"▁boundary":6569,"▁domestic":6570,"▁revolution":6571,"imbestpict":6572,"▁karachi":6573,"▁unlocking":6574,"▁encounter":6575,"▁fergusons":6576,"▁psychiatric":6577,"forest":6578,"wolffur":6579,"▁otrametlife":6580,"▁biological":6581,"▁wisenews":6582,"▁huffpost":6583,"▁negative":6584,"▁yellow":6585,"▁jimmy":6586,"▁discuss":6587,"▁responsibility":6588,"▁announcement":6589,"▁reveals":6590,"▁diamondkes":6591,"▁taco":6592,"▁dtn":6593,"alerts":6594,"▁lesbian":6595,"▁lonewolffur":6596,"▁wireless":6597,"▁kiernan":6598,"▁kenya":6599,"▁racist":6600,"▁unsuckdc":6601,"▁precipitation":6602,"▁abbswinston":6603,"▁utterly":6604,"▁previously":6605,"▁kurdish":6606,"bowaffair":6607,"trump":6608,"writer":6609,"▁citizen":6610,"▁buckle":6611,"▁benefit":6612,"▁pbban":6613,"▁positive":6614,"▁mercy":6615,"▁faith":6616,"▁danny":6617,"▁lyric":6618,"arette":6619,"▁brutally":6620,"▁telegraph":6621,"▁appreciate":6622,"▁primary":6623,"▁opposite":6624,"▁private":6625,"▁yazidis":6626,"▁cyber":6627,"▁cigarette":6628,"▁credit":6629,"▁tuesday":6630,"▁tampa":6631,"▁facility":6632,"▁liberty":6633,"▁raynbowaffair":6634,"▁independent":6635,"▁atmosp":6636,"▁settlement":6637,"▁historic":6638,"▁assistance":6639,"▁growingup":6640,"▁floyds":6641,"▁celebr":6642,"▁yahoonews":6643,"▁vulnerable":6644,"▁integrity":6645,"cannon":6646,"▁ireland":6647,"▁boko":6648,"▁pizza":6649,"▁mitigation":6650,"▁lulgz":6651,"▁chelsea":6652,"▁newlywed":6653,"▁analysis":6654,"▁alternative":6655,"▁critical":6656,"▁contempl":6657,"▁measurement":6658,"▁okanagan":6659,"▁horrific":6660,"▁tribune":6661,"▁epilepsy":6662,"▁humidity":6663,"commun":6664,"▁detectado":6665,"▁excellent":6666,"bakeoff":6667,"▁cotton":6668,"▁biker":6669,"▁mittû":6670,"▁fettiloot":6671,"▁dublin":6672,"▁houston":6673,"▁nugget":6674,"▁gadget":6675,"ramento":6676,"▁stereo":6677,"▁stylish":6678,"▁vintage":6679,"▁vancouver":6680,"▁karymsky":6681,"▁overnight":6682,"▁chocolate":6683,"▁choose":6684,"▁yemen":6685,"▁shanghai":6686,"▁angeles":6687,"▁bluetooth":6688,"▁supreme":6689,"▁sprinter":6690,"▁beforeitsnews":6691,"▁ûextremely":6692,"▁pregnant":6693,"▁warfighting":6694,"▁enjoying":6695,"▁marijuana":6696,"▁worldnetdaily":6697,"▁slanglucci":6698,"▁realdonaldtrump":6699,"▁tripledigit":6700,"▁centipede":6701,"▁betrayed":6702,"▁paramedic":6703,"▁impossible":6704,"▁supervisor":6705,"▁worstsummerjob":6706,"▁votejktid":6707,"▁localarsonist":6708,"▁kurtschlichter":6709,"imbestpicts":6710,"▁diamondkesawn":6711,"▁unsuckdcmetro":6712,"▁lulgzimbestpicts":6713,"▁fettilootch":6714,"ait":6715,"bb":6716,"bre":6717,"band":6718,"bak":6719,"blood":6720,"bry":6721,"bart":6722,"bour":6723,"bank":6724,"bury":6725,"bec":6726,"bby":6727,"bbc":6728,"baby":6729,"cu":6730,"cw":6731,"cat":6732,"cing":6733,"cil":6734,"cop":6735,"cum":6736,"card":6737,"camp":6738,"cru":6739,"count":6740,"cnews":6741,"cancer":6742,"dk":6743,"dn":6744,"du":6745,"dan":6746,"dad":6747,"die":6748,"eb":6749,"ef":6750,"ez":6751,"ein":6752,"eather":6753,"fd":6754,"fi":6755,"fs":6756,"fv":6757,"fx":6758,"fle":6759,"fac":6760,"fur":6761,"fig":6762,"fast":6763,"fri":6764,"fest":6765,"fort":6766,"fect":6767,"flood":6768,"fish":6769,"four":6770,"fans":6771,"fring":6772,"fyi":6773,"fiction":6774,"feld":6775,"gi":6776,"gm":6777,"gth":6778,"gate":6779,"gue":6780,"gah":6781,"gang":6782,"gme":6783,"gling":6784,"ghost":6785,"hat":6786,"hel":6787,"hand":6788,"haw":6789,"hope":6790,"hatchet":6791,"horses":6792,"iq":6793,"iw":6794,"ius":6795,"iate":6796,"iall":6797,"iqu":6798,"ique":6799,"ja":6800,"jd":6801,"ji":6802,"jj":6803,"jn":6804,"jap":6805,"jected":6806,"jech":6807,"kh":6808,"kos":6809,"kelly":6810,"lom":6811,"lain":6812,"lord":6813,"lady":6814,"lik":6815,"london":6816,"liest":6817,"liber":6818,"mh":6819,"mi":6820,"ml":6821,"ms":6822,"mis":6823,"mac":6824,"mate":6825,"mare":6826,"mart":6827,"mann":6828,"mass":6829,"mah":6830,"mos":6831,"mont":6832,"mike":6833,"nc":6834,"new":6835,"nec":6836,"nbc":6837,"number":6838,"nws":6839,"nashville":6840,"oin":6841,"oom":6842,"occ":6843,"oying":6844,"pad":6845,"past":6846,"pink":6847,"pics":6848,"qd":6849,"rus":6850,"rue":6851,"rance":6852,"rans":6853,"rina":6854,"sing":6855,"sense":6856,"tam":6857,"tive":6858,"turn":6859,"ux":6860,"uy":6861,"uan":6862,"uid":6863,"uine":6864,"vard":6865,"vind":6866,"voc":6867,"vious":6868,"voice":6869,"vani":6870,"wer":6871,"wal":6872,"wide":6873,"want":6874,"wild":6875,"well":6876,"wreck":6877,"word":6878,"whe":6879,"week":6880,"women":6881,"xo":6882,"xy":6883,"xon":6884,"yen":6885,"zk":6886,"zak":6887,"zero":6888,"▁il":6889,"▁od":6890,"▁ow":6891,"▁um":6892,"▁one":6893,"▁ub":6894,"▁orn":6895,"inct":6896,"inson":6897,"inaw":6898,"▁sf":6899,"▁sj":6900,"▁sel":6901,"▁sus":6902,"▁sht":6903,"▁slo":6904,"▁sight":6905,"▁sake":6906,"▁sab":6907,"▁sort":6908,"▁sass":6909,"▁sos":6910,"▁sni":6911,"▁sket":6912,"▁sne":6913,"▁sore":6914,"▁sov":6915,"▁syn":6916,"▁sized":6917,"▁symp":6918,"erb":6919,"erve":6920,"erate":6921,"erenc":6922,"review":6923,"regon":6924,"▁cc":6925,"▁cj":6926,"▁cri":6927,"▁cage":6928,"▁cue":6929,"▁cash":6930,"▁cult":6931,"▁cyp":6932,"▁crown":6933,"▁cta":6934,"▁candy":6935,"▁csx":6936,"aning":6937,"another":6938,"anket":6939,"anoke":6940,"oni":6941,"oned":6942,"onst":6943,"onic":6944,"onge":6945,"onym":6946,"▁bm":6947,"▁bes":6948,"▁bone":6949,"▁bab":6950,"▁bail":6951,"▁bard":6952,"▁bend":6953,"▁bew":6954,"▁bub":6955,"▁bern":6956,"▁bio":6957,"▁birm":6958,"▁belt":6959,"▁bump":6960,"▁bts":6961,"▁brew":6962,"▁bunch":6963,"▁balt":6964,"▁besid":6965,"edi":6966,"eday":6967,"edge":6968,"▁ta":6969,"▁tam":6970,"▁tes":6971,"▁tie":6972,"▁tab":6973,"▁tort":6974,"▁tah":6975,"▁tee":6976,"▁tale":6977,"▁tied":6978,"▁tape":6979,"▁tdp":6980,"▁tmp":6981,"▁telly":6982,"▁tinder":6983,"▁tooth":6984,"▁tidal":6985,"▁taylor":6986,"▁trophy":6987,"atl":6988,"atu":6989,"atam":6990,"ativity":6991,"▁pj":6992,"▁py":6993,"▁pow":6994,"▁pir":6995,"▁pug":6996,"▁patt":6997,"▁pour":6998,"▁piss":6999,"▁pair":7000,"▁mx":7001,"▁mel":7002,"▁mas":7003,"▁mch":7004,"▁mes":7005,"▁mir":7006,"▁monday":7007,"▁muzz":7008,"arn":7009,"arr":7010,"arit":7011,"arab":7012,"arily":7013,"arison":7014,"▁fer":7015,"▁fil":7016,"▁fab":7017,"▁fold":7018,"▁fee":7019,"▁forth":7020,"▁ford":7021,"▁fier":7022,"▁fouse":7023,"▁foul":7024,"▁fitness":7025,"▁fkn":7026,"▁fyi":7027,"▁folk":7028,"▁db":7029,"▁dd":7030,"▁dh":7031,"▁ded":7032,"▁dal":7033,"▁dil":7034,"▁dol":7035,"▁dun":7036,"▁dag":7037,"▁dop":7038,"▁dak":7039,"▁dcc":7040,"▁dund":7041,"▁daw":7042,"▁dwar":7043,"▁dental":7044,"ingly":7045,"ala":7046,"allo":7047,"alue":7048,"stv":7049,"stan":7050,"stle":7051,"stra":7052,"stairs":7053,"▁lan":7054,"▁lic":7055,"▁lit":7056,"▁loll":7057,"▁luc":7058,"▁lith":7059,"▁lenn":7060,"▁lemon":7061,"▁lrt":7062,"▁lzk":7063,"oran":7064,"orable":7065,"▁wra":7066,"▁wine":7067,"▁wann":7068,"▁wrist":7069,"▁witter":7070,"▁wnd":7071,"▁welfare":7072,"ena":7073,"enced":7074,"▁hh":7075,"▁hw":7076,"▁hin":7077,"▁her":7078,"▁hay":7079,"▁hide":7080,"▁hall":7081,"▁hend":7082,"▁hub":7083,"▁hoc":7084,"▁hond":7085,"▁hamp":7086,"▁hush":7087,"▁hood":7088,"▁hunk":7089,"▁himal":7090,"▁herman":7091,"▁hinton":7092,"▁hiphop":7093,"▁aû":7094,"▁aub":7095,"▁agency":7096,"▁ahh":7097,"▁aunt":7098,"▁aoms":7099,"ican":7100,"icen":7101,"icit":7102,"icap":7103,"icia":7104,"icial":7105,"icious":7106,"leck":7107,"leak":7108,"lege":7109,"lection":7110,"itement":7111,"itarian":7112,"oux":7113,"ouis":7114,"oustic":7115,"▁ego":7116,"▁egged":7117,"▁na":7118,"▁ng":7119,"▁nm":7120,"▁nan":7121,"▁nor":7122,"▁nap":7123,"▁nut":7124,"▁nri":7125,"▁nank":7126,"▁naj":7127,"▁nov":7128,"▁noooo":7129,"▁nazi":7130,"ila":7131,"iling":7132,"ilac":7133,"ilder":7134,"ilton":7135,"ilroy":7136,"▁gf":7137,"▁gel":7138,"▁got":7139,"▁gum":7140,"▁gord":7141,"▁grown":7142,"▁groom":7143,"▁grove":7144,"▁gerenc":7145,"roth":7146,"rome":7147,"isû":7148,"iser":7149,"isal":7150,"isure":7151,"iscover":7152,"islands":7153,"olar":7154,"olen":7155,"oline":7156,"olute":7157,"▁reck":7158,"▁revel":7159,"▁recycl":7160,"ras":7161,"rass":7162,"omn":7163,"omo":7164,"omed":7165,"omach":7166,"omination":7167,"omlinson":7168,"elson":7169,"amer":7170,"ament":7171,"amist":7172,"idim":7173,"ionem":7174,"aci":7175,"aya":7176,"urb":7177,"urd":7178,"▁stl":7179,"▁sto":7180,"▁stamp":7181,"▁stren":7182,"▁stats":7183,"▁strict":7184,"▁stacey":7185,"▁stolen":7186,"▁stomach":7187,"▁deed":7188,"▁deter":7189,"▁defe":7190,"▁dept":7191,"igion":7192,"iggin":7193,"igating":7194,"odi":7195,"odos":7196,"asc":7197,"asing":7198,"adh":7199,"adio":7200,"adding":7201,"advoc":7202,"vet":7203,"enty":7204,"enting":7205,"entic":7206,"▁rat":7207,"▁rit":7208,"▁rig":7209,"▁rul":7210,"▁rant":7211,"▁rice":7212,"▁rif":7213,"▁rio":7214,"▁rwy":7215,"▁ripped":7216,"▁rworld":7217,"▁rudd":7218,"owa":7219,"eto":7220,"▁vid":7221,"▁vod":7222,"▁vist":7223,"▁vood":7224,"▁vene":7225,"▁voting":7226,"▁vlad":7227,"imin":7228,"imir":7229,"imore":7230,"iminist":7231,"chris":7232,"esc":7233,"esar":7234,"espre":7235,"esburg":7236,"esolate":7237,"▁nepal":7238,"▁nestle":7239,"▁ka":7240,"▁kl":7241,"▁kel":7242,"▁kod":7243,"▁kend":7244,"▁krist":7245,"▁kij":7246,"▁kerry":7247,"▁kelly":7248,"▁kitten":7249,"▁komen":7250,"▁kalle":7251,"▁koin":7252,"▁thu":7253,"▁thin":7254,"▁then":7255,"▁thug":7256,"▁thick":7257,"▁thigh":7258,"▁threw":7259,"irty":7260,"irrel":7261,"▁oo":7262,"▁os":7263,"▁ooo":7264,"▁ooooo":7265,"▁osb":7266,"▁ooh":7267,"▁oregon":7268,"irection":7269,"▁lived":7270,"hts":7271,"ckm":7272,"▁chr":7273,"▁chat":7274,"▁chunk":7275,"▁cherno":7276,"▁chosen":7277,"then":7278,"though":7279,"aper":7280,"apal":7281,"apes":7282,"andal":7283,"▁yep":7284,"▁jb":7285,"▁jen":7286,"▁jus":7287,"▁jail":7288,"▁jup":7289,"▁june":7290,"▁jih":7291,"loc":7292,"lost":7293,"iah":7294,"iak":7295,"atever":7296,"▁sha":7297,"▁shaw":7298,"▁shark":7299,"▁sheet":7300,"▁shaking":7301,"▁shedding":7302,"▁shirt":7303,"▁shook":7304,"▁sheriff":7305,"▁separ":7306,"▁sewing":7307,"rier":7308,"riff":7309,"ulty":7310,"ume":7311,"uman":7312,"umption":7313,"ummet":7314,"emer":7315,"ffect":7316,"antage":7317,"cey":7318,"ception":7319,"ceeds":7320,"shi":7321,"shake":7322,"earl":7323,"▁lover":7324,"▁loos":7325,"ists":7326,"isters":7327,"akbag":7328,"sss":7329,"ssss":7330,"▁exclus":7331,"▁exhib":7332,"▁exhaust":7333,"terror":7334,"▁trav":7335,"▁trash":7336,"oneill":7337,"iev":7338,"ieval":7339,"▁concl":7340,"▁concept":7341,"▁conquest":7342,"▁aria":7343,"▁arwx":7344,"▁blink":7345,"▁blah":7346,"▁blued":7347,"▁blanket":7348,"▁suit":7349,"▁suff":7350,"▁surah":7351,"▁although":7352,"abs":7353,"abled":7354,"▁lee":7355,"▁leeds":7356,"▁leisure":7357,"▁plummet":7358,"▁spur":7359,"▁spear":7360,"▁spect":7361,"▁spenc":7362,"areful":7363,"▁discus":7364,"▁disgusting":7365,"oute":7366,"outs":7367,"▁gok":7368,"▁goat":7369,"ify":7370,"ifes":7371,"ifest":7372,"ifax":7373,"▁trs":7374,"▁trou":7375,"▁trub":7376,"▁trunk":7377,"▁roh":7378,"▁roman":7379,"▁roanoke":7380,"place":7381,"pliant":7382,"planet":7383,"aved":7384,"avier":7385,"avoid":7386,"elligence":7387,"▁pros":7388,"▁proced":7389,"▁proceeds":7390,"indy":7391,"inded":7392,"phin":7393,"phia":7394,"phony":7395,"photo":7396,"iano":7397,"georg":7398,"▁manmade":7399,"ubs":7400,"▁wey":7401,"▁weû":7402,"▁weigh":7403,"▁cos":7404,"▁coat":7405,"▁coal":7406,"▁cole":7407,"▁corey":7408,"▁cobra":7409,"▁evol":7410,"▁scale":7411,"▁screw":7412,"▁scoop":7413,"▁scifi":7414,"▁saint":7415,"▁beg":7416,"▁beast":7417,"▁comedy":7418,"azer":7419,"azzy":7420,"▁ûit":7421,"▁unc":7422,"▁uncle":7423,"▁unpre":7424,"▁unavoid":7425,"icker":7426,"▁pred":7427,"annews":7428,"▁colluded":7429,"▁healing":7430,"▁bore":7431,"▁boeing":7432,"ccer":7433,"aining":7434,"▁flav":7435,"▁flaming":7436,"ourite":7437,"▁newsint":7438,"upd":7439,"osis":7440,"oset":7441,"▁cladding":7442,"▁hike":7443,"ousse":7444,"▁quake":7445,"athing":7446,"▁warne":7447,"▁warcraft":7448,"▁warming":7449,"▁burnt":7450,"▁buried":7451,"▁who":7452,"▁whipped":7453,"▁whistle":7454,"berg":7455,"▁buying":7456,"▁buffer":7457,"perry":7458,"▁polic":7459,"▁poland":7460,"tonbry":7461,"▁phar":7462,"▁phant":7463,"▁phill":7464,"▁attitude":7465,"▁knob":7466,"▁knife":7467,"▁offs":7468,"▁offers":7469,"▁enrt":7470,"angle":7471,"angel":7472,"▁brig":7473,"▁brick":7474,"▁brush":7475,"bled":7476,"blight":7477,"▁famil":7478,"▁survey":7479,"▁cargo":7480,"▁carried":7481,"▁usnws":7482,"▁cafe":7483,"sons":7484,"▁crude":7485,"eez":7486,"eech":7487,"▁ima":7488,"▁impl":7489,"▁imper":7490,"▁import":7491,"▁imported":7492,"▁crashing":7493,"▁feast":7494,"▁teaching":7495,"▁marin":7496,"▁march":7497,"▁marque":7498,"▁twent":7499,"ampuse":7500,"▁smug":7501,"▁smooth":7502,"▁smoky":7503,"▁accionem":7504,"▁injures":7505,"fires":7506,"▁abe":7507,"▁abomb":7508,"▁abomination":7509,"ismampuse":7510,"▁contain":7511,"▁contained":7512,"▁context":7513,"▁contrast":7514,"ashes":7515,"ogo":7516,"▁joke":7517,"▁joint":7518,"▁johann":7519,"▁backup":7520,"▁background":7521,"undit":7522,"action":7523,"▁grew":7524,"▁minion":7525,"▁minaj":7526,"▁expand":7527,"▁expensive":7528,"▁zen":7529,"▁zach":7530,"▁zipped":7531,"▁zakbag":7532,"▁earnings":7533,"▁armed":7534,"▁armory":7535,"▁knowing":7536,"▁apt":7537,"▁apch":7538,"▁apart":7539,"▁apolog":7540,"▁guate":7541,"▁guest":7542,"▁guided":7543,"▁hearth":7544,"▁megan":7545,"▁desert":7546,"▁designed":7547,"▁outta":7548,"▁outflow":7549,"▁swear":7550,"▁swiss":7551,"▁swarm":7552,"▁sweden":7553,"▁adop":7554,"▁adjust":7555,"▁advert":7556,"▁indie":7557,"▁workout":7558,"▁workplace":7559,"niest":7560,"▁rtrr":7561,"▁embro":7562,"▁embar":7563,"▁embra":7564,"▁element":7565,"▁catfish":7566,"▁damaging":7567,"▁lovemy":7568,"▁grid":7569,"army":7570,"▁northeast":7571,"aweather":7572,"coin":7573,"coast":7574,"▁lego":7575,"▁period":7576,"▁dies":7577,"▁dijk":7578,"boot":7579,"boost":7580,"boys":7581,"▁landsc":7582,"▁needle":7583,"▁lighting":7584,"▁remix":7585,"▁remorse":7586,"▁removal":7587,"▁playth":7588,"ecom":7589,"please":7590,"▁fuckin":7591,"▁destroying":7592,"okes":7593,"▁goodby":7594,"▁okinaw":7595,"▁schiph":7596,"▁rainfall":7597,"▁brock":7598,"▁bigamist":7599,"▁refused":7600,"▁org":7601,"▁oral":7602,"▁panel":7603,"▁wayne":7604,"▁atû":7605,"▁turning":7606,"days":7607,"▁appoint":7608,"ixon":7609,"▁mississ":7610,"▁lasting":7611,"▁acting":7612,"neg":7613,"▁xv":7614,"▁xxx":7615,"▁francis":7616,"▁tyre":7617,"▁tyler":7618,"▁medieval":7619,"▁happiness":7620,"eks":7621,"▁obs":7622,"▁obser":7623,"▁electro":7624,"beat":7625,"bees":7626,"▁slate":7627,"▁slower":7628,"▁slayer":7629,"isease":7630,"▁recap":7631,"oret":7632,"▁kee":7633,"▁key":7634,"byl":7635,"▁ihh":7636,"▁ibook":7637,"breaker":7638,"aley":7639,"▁assembly":7640,"▁realtime":7641,"▁realmandy":7642,"▁thanku":7643,"▁snack":7644,"▁longs":7645,"▁waterway":7646,"▁waterresistant":7647,"ofme":7648,"▁ruined":7649,"▁chevy":7650,"▁headline":7651,"▁headset":7652,"▁creation":7653,"▁creativity":7654,"ances":7655,"ancons":7656,"▁finish":7657,"▁finishing":7658,"▁elk":7659,"▁elite":7660,"▁elij":7661,"▁hostageamp":7662,"scare":7663,"scott":7664,"▁liveonk":7665,"▁ending":7666,"▁skirt":7667,"▁breakfast":7668,"▁godslove":7669,"▁refuge":7670,"aught":7671,"augth":7672,"▁curb":7673,"▁drift":7674,"▁native":7675,"▁vibr":7676,"▁comparison":7677,"▁aviation":7678,"▁collect":7679,"▁noticed":7680,"ype":7681,"▁edit":7682,"▁edward":7683,"onderha":7684,"▁poster":7685,"▁posting":7686,"▁ûïrich":7687,"▁ûïhatchet":7688,"▁highly":7689,"▁they":7690,"▁theû":7691,"▁thegame":7692,"▁hurry":7693,"▁acute":7694,"▁acoustic":7695,"▁influ":7696,"▁showed":7697,"▁showcase":7698,"▁trium":7699,"▁mete":7700,"▁metric":7701,"▁latestnews":7702,"eets":7703,"▁cape":7704,"▁gunshot":7705,"▁gunsense":7706,"ioterrorismampuse":7707,"åêcont":7708,"▁monster":7709,"uspol":7710,"ginoodle":7711,"▁barn":7712,"▁shitty":7713,"▁boyfriend":7714,"lessly":7715,"▁nightmare":7716,"▁repres":7717,"▁repeat":7718,"▁sirens":7719,"▁beth":7720,"▁ops":7721,"▁freezing":7722,"▁drama":7723,"▁steal":7724,"▁stepped":7725,"▁steven":7726,"▁standing":7727,"▁weathernetwork":7728,"spect":7729,"spiracy":7730,"reates":7731,"▁declared":7732,"▁declined":7733,"▁commute":7734,"▁southdown":7735,"▁southbound":7736,"obama":7737,"▁prone":7738,"▁proud":7739,"▁princ":7740,"▁humaza":7741,"▁humancons":7742,"▁urban":7743,"▁glorious":7744,"▁foodscare":7745,"iii":7746,"osex":7747,"▁volga":7748,"▁modiminist":7749,"▁violation":7750,"ysiren":7751,"▁brady":7752,"▁memphis":7753,"▁genuine":7754,"▁ohio":7755,"▁transfer":7756,"▁heartless":7757,"▁ones":7758,"bron":7759,"british":7760,"uka":7761,"▁utckm":7762,"▁grave":7763,"▁gravity":7764,"▁instant":7765,"▁instruction":7766,"▁suppose":7767,"▁savebees":7768,"▁idis":7769,"▁idol":7770,"▁salmon":7771,"▁salvation":7772,"▁salvad":7773,"▁paris":7774,"▁invasion":7775,"▁harmkid":7776,"▁starb":7777,"▁experien":7778,"▁mountaine":7779,"▁regret":7780,"saf":7781,"sunited":7782,"▁cycling":7783,"▁displace":7784,"▁bookboost":7785,"coming":7786,"compliant":7787,"ovation":7788,"windstorm":7789,"▁federal":7790,"▁teamh":7791,"▁camping":7792,"▁moscow":7793,"▁deploy":7794,"flict":7795,"flower":7796,"ynine":7797,"▁sends":7798,"▁favourite":7799,"▁decor":7800,"▁decade":7801,"▁december":7802,"▁surely":7803,"▁suresh":7804,"▁superhero":7805,"▁supernat":7806,"▁adding":7807,"▁moral":7808,"▁labour":7809,"▁retro":7810,"▁retail":7811,"▁possibly":7812,"▁ordered":7813,"▁dealing":7814,"▁victor":7815,"▁cooler":7816,"▁believing":7817,"▁hardline":7818,"▁austin":7819,"▁defect":7820,"imalucha":7821,"▁justû":7822,"▁shipwreck":7823,"▁extends":7824,"who":7825,"why":7826,"▁omars":7827,"▁satan":7828,"▁palin":7829,"▁password":7830,"▁frees":7831,"▁donate":7832,"▁donald":7833,"idered":7834,"▁undercover":7835,"▁sunny":7836,"▁clever":7837,"they":7838,"▁healthcare":7839,"▁marker":7840,"▁iceland":7841,"▁magnet":7842,"▁magginoodle":7843,"▁hahaha":7844,"▁virus":7845,"▁virgil":7846,"▁overload":7847,"▁overlook":7848,"▁foreign":7849,"burst":7850,"deen":7851,"▁popul":7852,"▁popular":7853,"▁denier":7854,"▁denmark":7855,"▁droid":7856,"market":7857,"oever":7858,"▁controlû":7859,"▁controller":7860,"▁controlled":7861,"ergate":7862,"▁closing":7863,"▁hatcap":7864,"▁novel":7865,"▁noaa":7866,"▁offensiveåêcont":7867,"▁transporting":7868,"▁tested":7869,"▁testim":7870,"▁purchase":7871,"▁formed":7872,"▁wedaugth":7873,"▁villager":7874,"▁intact":7875,"▁introd":7876,"▁intelligence":7877,"▁beginner":7878,"▁britain":7879,"▁techni":7880,"▁frontpage":7881,"▁otherwise":7882,"▁solo":7883,"▁solid":7884,"▁solve":7885,"▁wwi":7886,"▁nyt":7887,"▁growth":7888,"▁occurs":7889,"loading":7890,"▁sharethis":7891,"▁sexy":7892,"▁provide":7893,"▁safely":7894,"▁generally":7895,"▁onlinecommun":7896,"▁cryptic":7897,"ificate":7898,"▁soudelors":7899,"▁openly":7900,"▁listenbu":7901,"▁listenlive":7902,"▁olap":7903,"▁older":7904,"▁olive":7905,"▁oliv":7906,"▁bengal":7907,"▁annoying":7908,"▁condo":7909,"▁condolence":7910,"▁robinson":7911,"▁blizzarddra":7912,"▁soak":7913,"▁soccer":7914,"▁corp":7915,"▁coral":7916,"▁bbcnews":7917,"▁laid":7918,"▁autumn":7919,"▁behalf":7920,"▁adventure":7921,"▁socialism":7922,"▁socialmed":7923,"caine":7924,"cafe":7925,"yyy":7926,"▁sonof":7927,"▁cutting":7928,"▁butt":7929,"▁billing":7930,"▁billboard":7931,"▁portion":7932,"▁maint":7933,"▁detained":7934,"▁ukraine":7935,"▁radioactive":7936,"▁blowing":7937,"▁blowout":7938,"▁blowmandy":7939,"▁australiaûas":7940,"knifes":7941,"▁recorded":7942,"▁prayer":7943,"▁silvergray":7944,"▁square":7945,"▁squee":7946,"▁gopdebate":7947,"▁metrofm":7948,"▁camera":7949,"▁mcdonald":7950,"▁mcilroy":7951,"▁fashionable":7952,"▁daesh":7953,"▁authentic":7954,"untary":7955,"▁arriving":7956,"▁pulling":7957,"aldo":7958,"▁devalue":7959,"▁visited":7960,"▁seemed":7961,"▁apollobrown":7962,"▁responded":7963,"▁communication":7964,"▁washingtonpost":7965,"iately":7966,"iatodos":7967,"tweets":7968,"▁illino":7969,"▁illustration":7970,"▁sigalert":7971,"▁bbsp":7972,"▁budd":7973,"▁mirage":7974,"▁multidim":7975,"▁mentioned":7976,"▁distrib":7977,"▁darkness":7978,"▁hoax":7979,"▁joining":7980,"▁appropri":7981,"force":7982,"▁sampling":7983,"▁samarit":7984,"▁breathe":7985,"▁basic":7986,"▁basement":7987,"▁bully":7988,"▁punish":7989,"▁loses":7990,"border":7991,"fallon":7992,"harper":7993,"presa":7994,"skin":7995,"incident":7996,"▁tunis":7997,"▁tunnel":7998,"▁timeline":7999,"utional":8000,"▁localû":8001,"▁profession":8002,"▁leadership":8003,"iams":8004,"yonpc":8005,"▁beard":8006,"orgeous":8007,"▁hamas":8008,"▁hamilton":8009,"lectroc":8010,"▁noncompliant":8011,"▁constant":8012,"▁construction":8013,"▁speak":8014,"▁forgiven":8015,"▁sittingû":8016,"brooke":8017,"brother":8018,"wait":8019,"instein":8020,"▁cowork":8021,"oulding":8022,"▁navbl":8023,"▁nickcannon":8024,"▁stressed":8025,"▁stressful":8026,"▁examiner":8027,"iveness":8028,"▁administ":8029,"▁employ":8030,"▁entering":8031,"hearton":8032,"rrr":8033,"▁bowling":8034,"▁mattson":8035,"▁fraction":8036,"▁fixed":8037,"▁fixing":8038,"▁lately":8039,"▁latimes":8040,"▁latino":8041,"▁lifting":8042,"▁julian":8043,"▁locker":8044,"▁suffered":8045,"▁premium":8046,"▁premature":8047,"▁prediction":8048,"▁photographer":8049,"▁capsized":8050,"▁impacted":8051,"cius":8052,"▁ultimalucha":8053,"▁frog":8054,"▁frozen":8055,"▁luis":8056,"▁lucy":8057,"▁langley":8058,"▁hoping":8059,"▁gamergate":8060,"▁renew":8061,"▁vacation":8062,"▁jewel":8063,"▁journey":8064,"▁complaint":8065,"▁organization":8066,"▁slowly":8067,"▁snapchat":8068,"▁college":8069,"▁grabber":8070,"aoh":8071,"pective":8072,"▁circle":8073,"▁bottle":8074,"▁domin":8075,"▁digit":8076,"▁digital":8077,"▁hybrid":8078,"▁eaten":8079,"▁garbage":8080,"▁request":8081,"▁required":8082,"▁thatûas":8083,"▁lifetime":8084,"▁shelby":8085,"▁unfort":8086,"▁unfold":8087,"▁charlotte":8088,"▁robotrainstorm":8089,"▁correct":8090,"▁psychological":8091,"pdnashville":8092,"▁ianhell":8093,"▁sioux":8094,"▁castle":8095,"▁talent":8096,"▁taliban":8097,"▁troll":8098,"▁pitcher":8099,"▁filled":8100,"▁nbcnews":8101,"▁jacket":8102,"▁looping":8103,"▁splat":8104,"▁split":8105,"▁roller":8106,"▁physician":8107,"▁mariah":8108,"▁democrat":8109,"▁forbid":8110,"▁itunesmusic":8111,"▁agrees":8112,"▁prompted":8113,"injured":8114,"▁cartoon":8115,"▁matthew":8116,"stein":8117,"▁reopening":8118,"▁thetwister":8119,"▁championship":8120,"▁shocked":8121,"▁racing":8122,"▁becoming":8123,"▁application":8124,"▁affecting":8125,"▁registered":8126,"▁harrybec":8127,"▁throwingknifes":8128,"▁customer":8129,"morgan":8130,"ratio":8131,"▁odds":8132,"▁bolster":8133,"▁barely":8134,"▁dannyonpc":8135,"orpion":8136,"▁however":8137,"▁hype":8138,"▁astrolo":8139,"▁achie":8140,"▁gateau":8141,"▁reshapes":8142,"▁verdict":8143,"▁jennifer":8144,"▁existence":8145,"▁anxious":8146,"▁anxiety":8147,"quisite":8148,"▁franklin":8149,"▁artistsunited":8150,"▁regarding":8151,"▁neighborhood":8152,"▁opposition":8153,"▁journalist":8154,"▁environmental":8155,"▁btwn":8156,"▁tilnow":8157,"▁patched":8158,"▁mercury":8159,"▁wbioterrorismampuse":8160,"▁widespre":8161,"▁gilbert":8162,"▁rickperry":8163,"charley":8164,"▁wheeler":8165,"▁calumsos":8166,"▁joseph":8167,"▁despite":8168,"▁deserves":8169,"▁referring":8170,"▁milkshake":8171,"▁vegetable":8172,"▁vegetarian":8173,"▁belongs":8174,"▁belonged":8175,"▁installation":8176,"hhhhh":8177,"▁clearedincident":8178,"▁describing":8179,"▁describes":8180,"▁disappearance":8181,"▁croatian":8182,"▁dorrets":8183,"▁demonstratio":8184,"▁connectorconnect":8185,"▁spinningbot":8186,"▁ptsdchat":8187,"busalerts":8188,"dotcom":8189,"hazard":8190,"official":8191,"party":8192,"▁ìñ":8193,"▁cbcca":8194,"▁cuban":8195,"▁cecilth":8196,"▁certificate":8197,"▁briefing":8198,"▁tremor":8199,"▁tinyjech":8200,"▁pisgah":8201,"▁perspective":8202,"▁mkx":8203,"▁mnpdnashville":8204,"strikes":8205,"▁wrapup":8206,"▁halifax":8207,"▁ethiop":8208,"▁necessary":8209,"▁kuwait":8210,"▁lizard":8211,"▁chicken":8212,"quarter":8213,"▁arizona":8214,"▁scotland":8215,"▁attendance":8216,"▁contribut":8217,"▁exploit":8218,"▁permanent":8219,"▁difficult":8220,"▁particularly":8221,"▁hurricaned":8222,"▁barackobama":8223,"▁transformation":8224,"▁terrifying":8225,"▁taxiway":8226,"▁disappoints":8227,"▁encouragement":8228,"▁suddenly":8229,"▁inevitable":8230,"zuela":8231,"▁ontario":8232,"▁bypass":8233,"▁tflbusalerts":8234,"▁pdx":8235,"▁psalm":8236,"▁pixel":8237,"▁mentally":8238,"▁mullah":8239,"▁figure":8240,"▁diplom":8241,"▁lynch":8242,"▁lglorg":8243,"▁higher":8244,"▁habit":8245,"▁haiyan":8246,"▁aberdeen":8247,"▁nsfw":8248,"▁revenue":8249,"america":8250,"▁sterling":8251,"▁stewart":8252,"▁variety":8253,"▁vampiro":8254,"▁vermont":8255,"▁initial":8256,"▁kashmir":8257,"▁korea":8258,"▁chewing":8259,"▁yugvani":8260,"▁jasmine":8261,"▁jessien":8262,"▁amirite":8263,"▁blksampw":8264,"▁sputnik":8265,"▁unawares":8266,"▁unknown":8267,"▁unhappiness":8268,"▁claytonbry":8269,"▁knoxville":8270,"▁bronx":8271,"▁immediately":8272,"▁greeting":8273,"▁indonesia":8274,"▁legendary":8275,"▁intersection":8276,"▁inspection":8277,"▁avenue":8278,"▁columbia":8279,"▁infectious":8280,"▁significant":8281,"▁bradley":8282,"▁experiencing":8283,"▁relationship":8284,"▁faroeislands":8285,"▁toxic":8286,"▁icymi":8287,"▁saddlebrooke":8288,"▁simply":8289,"▁occupant":8290,"▁davidvonderha":8291,"▁propertycasualty":8292,"▁circuit":8293,"▁jimmyfallon":8294,"▁celebration":8295,"▁contemplating":8296,"cruz":8297,"daniel":8298,"fringe":8299,"▁uber":8300,"▁ornament":8301,"▁sassy":8302,"▁sosfam":8303,"▁sketch":8304,"▁sneak":8305,"▁soviet":8306,"▁sympathy":8307,"onymous":8308,"▁beware":8309,"▁bernard":8310,"▁birmingham":8311,"▁baltimore":8312,"▁besides":8313,"▁tabû":8314,"▁tahoe":8315,"arabia":8316,"▁dolphin":8317,"▁dundee":8318,"▁dwarf":8319,"▁wannabe":8320,"▁hampshire":8321,"▁himalaya":8322,"▁najib":8323,"▁gordon":8324,"▁gerenciatodos":8325,"▁recycling":8326,"▁strength":8327,"advocate":8328,"▁rifle":8329,"▁rworldnews":8330,"▁voodoo":8331,"▁venezuela":8332,"▁vladimir":8333,"▁nestleindia":8334,"▁koinnews":8335,"▁oooh":8336,"▁chernobyl":8337,"▁jupiter":8338,"▁jihad":8339,"▁bluedio":8340,"▁spencer":8341,"▁trubgme":8342,"▁procedure":8343,"▁scoopit":8344,"▁unavoidable":8345,"▁newsintweets":8346,"▁offersgo":8347,"▁usnwsgov":8348,"▁accionempresa":8349,"▁johannesburg":8350,"▁zakbagans":8351,"▁rtrrt":8352,"▁embroidered":8353,"▁embarrass":8354,"▁landscape":8355,"▁goodbye":8356,"▁schiphol":8357,"▁ihhen":8358,"▁ibooklove":8359,"▁realmandyrain":8360,"▁elijah":8361,"▁ûïrichmond":8362,"▁humanconsumption":8363,"▁modiministry":8364,"▁experienced":8365,"▁mountaineering":8366,"▁supernatural":8367,"▁offensiveåêcontent":8368,"▁onlinecommunities":8369,"▁listenbuy":8370,"▁blizzarddraco":8371,"▁blowmandyup":8372,"▁metrofmtalk":8373,"▁mcdonalds":8374,"▁illinois":8375,"▁ianhellfire":8376,"▁harrybecareful":8377,"▁widespread":8378,"▁connectorconnecto":8379,"▁cecilthelion":8380,"▁tinyjecht":8381,"▁blksampwhts":8382,"▁claytonbryant":8383,"▁davidvonderhaar":8384,"aal":8385,"aid":8386,"aver":8387,"aud":8388,"ault":8389,"aits":8390,"author":8391,"auspol":8392,"bn":8393,"bw":8394,"bis":8395,"bol":8396,"bod":8397,"bes":8398,"bug":8399,"bold":8400,"base":8401,"bane":8402,"bee":8403,"bush":8404,"bile":8405,"bris":8406,"battle":8407,"baa":8408,"bau":8409,"buff":8410,"bird":8411,"both":8412,"broad":8413,"bbit":8414,"brad":8415,"bread":8416,"buds":8417,"cj":8418,"cs":8419,"cz":8420,"clo":8421,"cut":8422,"cine":8423,"cend":8424,"cry":8425,"cup":8426,"cous":8427,"cident":8428,"cade":8429,"cope":8430,"cmp":8431,"camer":8432,"cubs":8433,"db":8434,"ds":8435,"dor":8436,"dol":8437,"det":8438,"dest":8439,"dry":8440,"dty":8441,"dream":8442,"dash":8443,"dog":8444,"dave":8445,"dies":8446,"dram":8447,"demon":8448,"dabe":8449,"drome":8450,"eg":8451,"ey":8452,"eur":8453,"ecy":8454,"eath":8455,"ease":8456,"electroc":8457,"fed":8458,"fun":8459,"fet":8460,"form":8461,"free":8462,"fers":8463,"father":8464,"fax":8465,"fob":8466,"fitness":8467,"feller":8468,"fried":8469,"finger":8470,"fpa":8471,"folk":8472,"floyd":8473,"follow":8474,"files":8475,"gw":8476,"gis":8477,"gom":8478,"gid":8479,"got":8480,"gow":8481,"gia":8482,"gri":8483,"gem":8484,"gass":8485,"gold":8486,"gile":8487,"gical":8488,"gaming":8489,"gboot":8490,"hd":8491,"hl":8492,"hm":8493,"hq":8494,"hor":8495,"had":8496,"hack":8497,"hall":8498,"hub":8499,"hud":8500,"hick":8501,"hold":8502,"have":8503,"harm":8504,"high":8505,"hunt":8506,"horse":8507,"handed":8508,"hunting":8509,"hanced":8510,"iad":8511,"iating":8512,"iya":8513,"ihood":8514,"iweb":8515,"iography":8516,"je":8517,"js":8518,"ju":8519,"jen":8520,"jam":8521,"jac":8522,"jav":8523,"jew":8524,"jones":8525,"jett":8526,"kr":8527,"ked":8528,"kel":8529,"kam":8530,"kot":8531,"kah":8532,"kitt":8533,"kans":8534,"kny":8535,"kyle":8536,"kward":8537,"kwy":8538,"lf":8539,"lg":8540,"lv":8541,"lan":8542,"len":8543,"las":8544,"last":8545,"link":8546,"lcy":8547,"little":8548,"lene":8549,"laken":8550,"luke":8551,"lawn":8552,"mic":8553,"mit":8554,"mil":8555,"mid":8556,"mes":8557,"mul":8558,"mall":8559,"mage":8560,"mcc":8561,"mary":8562,"mber":8563,"mash":8564,"mother":8565,"mint":8566,"mined":8567,"mov":8568,"mbal":8569,"mtv":8570,"nf":8571,"nj":8572,"nk":8573,"np":8574,"nr":8575,"nv":8576,"nes":8577,"nab":8578,"nell":8579,"ngr":8580,"nhem":8581,"nature":8582,"nosis":8583,"och":8584,"oear":8585,"oak":8586,"ovel":8587,"oided":8588,"oors":8589,"oiled":8590,"ohhhh":8591,"oices":8592,"pg":8593,"py":8594,"pit":8595,"pra":8596,"pig":8597,"pine":8598,"pass":8599,"pour":8600,"pence":8601,"pco":8602,"pren":8603,"power":8604,"pret":8605,"pgt":8606,"pike":8607,"prem":8608,"point":8609,"ppling":8610,"pattan":8611,"peech":8612,"qa":8613,"rh":8614,"rw":8615,"rar":8616,"rou":8617,"rra":8618,"rid":8619,"rate":8620,"rum":8621,"rary":8622,"rush":8623,"rought":8624,"rale":8625,"rator":8626,"rough":8627,"ratch":8628,"rude":8629,"rative":8630,"russia":8631,"rmg":8632,"route":8633,"sar":8634,"sor":8635,"sit":8636,"sis":8637,"som":8638,"sur":8639,"ssh":8640,"sie":8641,"sound":8642,"sink":8643,"sure":8644,"sup":8645,"sof":8646,"suk":8647,"sville":8648,"seller":8649,"sno":8650,"sica":8651,"south":8652,"sstrikes":8653,"tc":8654,"ti":8655,"tp":8656,"tz":8657,"tan":8658,"tun":8659,"tent":8660,"test":8661,"take":8662,"tour":8663,"tube":8664,"tai":8665,"tape":8666,"tornado":8667,"tains":8668,"today":8669,"tips":8670,"tomlinson":8671,"uv":8672,"uw":8673,"uì":8674,"uert":8675,"uished":8676,"uatu":8677,"vb":8678,"vu":8679,"vro":8680,"vod":8681,"vas":8682,"vir":8683,"vant":8684,"viv":8685,"vance":8686,"vnews":8687,"vict":8688,"vale":8689,"vision":8690,"vative":8691,"vins":8692,"vwar":8693,"voy":8694,"vfac":8695,"wb":8696,"wd":8697,"wt":8698,"wom":8699,"wel":8700,"wear":8701,"wab":8702,"wave":8703,"wsl":8704,"worth":8705,"wama":8706,"wec":8707,"wau":8708,"wyn":8709,"wield":8710,"walt":8711,"wberry":8712,"xi":8713,"xn":8714,"xie":8715,"yo":8716,"yar":8717,"yor":8718,"ych":8719,"yes":8720,"ybe":8721,"yyc":8722,"yote":8723,"yster":8724,"yagi":8725,"yadh":8726,"zf":8727,"zi":8728,"zar":8729,"zor":8730,"zel":8731,"zone":8732,"zania":8733,"åt":8734,"ûò":8735,"▁ia":8736,"▁oun":8737,"▁ome":8738,"▁ive":8739,"▁our":8740,"▁eric":8741,"▁ired":8742,"▁oth":8743,"▁ivan":8744,"inh":8745,"inw":8746,"inx":8747,"ining":8748,"inent":8749,"inet":8750,"inag":8751,"inest":8752,"inak":8753,"inated":8754,"inart":8755,"inite":8756,"inction":8757,"invest":8758,"inåê":8759,"inûa":8760,"inlcy":8761,"▁sq":8762,"▁sz":8763,"▁sed":8764,"▁sle":8765,"▁sod":8766,"▁sct":8767,"▁sack":8768,"▁sug":8769,"▁sif":8770,"▁sell":8771,"▁sour":8772,"▁siz":8773,"▁sway":8774,"▁sole":8775,"▁sirm":8776,"▁sided":8777,"▁sque":8778,"▁sami":8779,"▁soooo":8780,"▁ssw":8781,"▁sirt":8782,"▁sedu":8783,"▁sample":8784,"▁sfg":8785,"▁selling":8786,"▁session":8787,"▁saku":8788,"era":8789,"erû":8790,"eren":8791,"erel":8792,"erun":8793,"eria":8794,"eros":8795,"erang":8796,"erson":8797,"erely":8798,"erga":8799,"eries":8800,"ervation":8801,"reg":8802,"rex":8803,"reated":8804,"rease":8805,"refeld":8806,"respect":8807,"repren":8808,"▁ci":8809,"▁cm":8810,"▁cs":8811,"▁cu":8812,"▁cst":8813,"▁cort":8814,"▁cain":8815,"▁cite":8816,"▁cody":8817,"▁cach":8818,"▁croy":8819,"▁cope":8820,"▁cared":8821,"▁celt":8822,"▁cbc":8823,"▁crist":8824,"▁csp":8825,"▁cement":8826,"▁cfc":8827,"▁cried":8828,"▁cjoy":8829,"▁cmon":8830,"▁cerv":8831,"▁cindy":8832,"anor":8833,"anom":8834,"anel":8835,"anch":8836,"anth":8837,"anie":8838,"anity":8839,"anium":8840,"anyn":8841,"animal":8842,"anthat":8843,"ansey":8844,"ankee":8845,"anheart":8846,"onon":8847,"onad":8848,"onent":8849,"onet":8850,"onos":8851,"onna":8852,"onfire":8853,"onio":8854,"oncancer":8855,"▁bk":8856,"▁bn":8857,"▁bû":8858,"▁bom":8859,"▁bod":8860,"▁bent":8861,"▁bast":8862,"▁bri":8863,"▁bist":8864,"▁bie":8865,"▁bice":8866,"▁bust":8867,"▁bann":8868,"▁bass":8869,"▁bah":8870,"▁biz":8871,"▁bark":8872,"▁banc":8873,"▁bummer":8874,"▁bened":8875,"▁bible":8876,"▁bike":8877,"▁bkn":8878,"▁baff":8879,"▁bye":8880,"▁babe":8881,"▁bumper":8882,"▁boring":8883,"▁bwp":8884,"edirection":8885,"▁tc":8886,"▁tj":8887,"▁tn":8888,"▁tp":8889,"▁ts":8890,"▁tx":8891,"▁tin":8892,"▁tou":8893,"▁tol":8894,"▁tel":8895,"▁tay":8896,"▁tig":8897,"▁tas":8898,"▁tch":8899,"▁tire":8900,"▁tast":8901,"▁tant":8902,"▁tsh":8903,"▁tail":8904,"▁tos":8905,"▁tang":8906,"▁tory":8907,"▁tact":8908,"▁tower":8909,"▁tix":8910,"▁times":8911,"▁tgirl":8912,"▁tiger":8913,"▁task":8914,"▁toky":8915,"▁taught":8916,"atz":8917,"atur":8918,"atul":8919,"atak":8920,"atomic":8921,"atron":8922,"atform":8923,"▁pû":8924,"▁por":8925,"▁pion":8926,"▁pod":8927,"▁pine":8928,"▁pend":8929,"▁piv":8930,"▁paw":8931,"▁pale":8932,"▁punk":8933,"▁publ":8934,"▁pik":8935,"▁psa":8936,"▁pony":8937,"▁piner":8938,"▁porc":8939,"▁pomo":8940,"▁pearl":8941,"▁paved":8942,"▁pundit":8943,"▁pkwy":8944,"▁mb":8945,"▁mv":8946,"▁mw":8947,"▁mz":8948,"▁mû":8949,"▁mra":8950,"▁mam":8951,"▁mast":8952,"▁mack":8953,"▁mul":8954,"▁mip":8955,"▁mare":8956,"▁math":8957,"▁mash":8958,"▁mute":8959,"▁male":8960,"▁mesh":8961,"▁muk":8962,"▁mmm":8963,"▁maf":8964,"▁msm":8965,"▁maker":8966,"▁msn":8967,"▁mouth":8968,"▁mì1⁄4":8969,"▁mgm":8970,"▁moulding":8971,"arp":8972,"arri":8973,"arant":8974,"arama":8975,"araa":8976,"arca":8977,"argent":8978,"▁fm":8979,"▁fu":8980,"▁fel":8981,"▁fion":8982,"▁fot":8983,"▁fir":8984,"▁fist":8985,"▁few":8986,"▁fna":8987,"▁fond":8988,"▁fence":8989,"▁fury":8990,"▁fris":8991,"▁firm":8992,"▁funk":8993,"▁fte":8994,"▁fts":8995,"▁faul":8996,"▁fried":8997,"▁faint":8998,"▁fias":8999,"▁fieg":9000,"▁du":9001,"▁din":9002,"▁dir":9003,"▁dia":9004,"▁dab":9005,"▁dice":9006,"▁dive":9007,"▁dame":9008,"▁dup":9009,"▁dial":9010,"▁dang":9011,"▁damp":9012,"▁dign":9013,"▁dyn":9014,"▁doth":9015,"▁duke":9016,"▁dressed":9017,"▁dancer":9018,"▁dvc":9019,"▁dorman":9020,"▁doret":9021,"ingh":9022,"ingle":9023,"ingame":9024,"ingnews":9025,"alp":9026,"als":9027,"alem":9028,"alous":9029,"alley":9030,"algia":9031,"station":9032,"still":9033,"stud":9034,"stream":9035,"stition":9036,"stable":9037,"sthe":9038,"stret":9039,"static":9040,"stories":9041,"▁las":9042,"▁lag":9043,"▁lap":9044,"▁lem":9045,"▁lous":9046,"▁lance":9047,"▁lash":9048,"▁lans":9049,"▁lope":9050,"▁lanc":9051,"▁lying":9052,"▁linds":9053,"▁liner":9054,"▁lucha":9055,"▁lloyd":9056,"▁lubb":9057,"▁laura":9058,"▁luka":9059,"▁llf":9060,"▁lnp":9061,"orter":9062,"orama":9063,"orical":9064,"orship":9065,"orfi":9066,"▁wc":9067,"▁wn":9068,"▁wen":9069,"▁wod":9070,"▁wes":9071,"▁wide":9072,"▁wack":9073,"▁wce":9074,"▁ward":9075,"▁wud":9076,"▁wart":9077,"▁wah":9078,"▁woc":9079,"▁wiz":9080,"▁wft":9081,"▁wpt":9082,"▁wrest":9083,"▁wale":9084,"▁wattle":9085,"▁waking":9086,"▁wbc":9087,"▁wipp":9088,"▁witch":9089,"▁wwe":9090,"▁wpri":9091,"▁wfp":9092,"▁wilsh":9093,"enm":9094,"enga":9095,"enjoy":9096,"engal":9097,"engl":9098,"▁hû":9099,"▁hen":9100,"▁hem":9101,"▁hav":9102,"▁hew":9103,"▁hick":9104,"▁hue":9105,"▁hass":9106,"▁hoo":9107,"▁hash":9108,"▁hog":9109,"▁have":9110,"▁hool":9111,"▁hint":9112,"▁here":9113,"▁halt":9114,"▁hmu":9115,"▁henry":9116,"▁haley":9117,"▁au":9118,"▁aer":9119,"▁aar":9120,"▁ais":9121,"▁aqu":9122,"▁auck":9123,"▁aog":9124,"▁aren":9125,"▁aaaaa":9126,"▁aquar":9127,"icin":9128,"icas":9129,"icet":9130,"icos":9131,"icott":9132,"icana":9133,"icitor":9134,"icinity":9135,"icaro":9136,"lel":9137,"lest":9138,"lead":9139,"leard":9140,"lement":9141,"lets":9142,"lehem":9143,"leoned":9144,"iti":9145,"itan":9146,"itup":9147,"itfro":9148,"itutional":9149,"ouce":9150,"ouss":9151,"▁ez":9152,"▁eve":9153,"▁esh":9154,"▁eud":9155,"▁ether":9156,"▁nv":9157,"▁nit":9158,"▁nke":9159,"▁nop":9160,"▁nash":9161,"▁noon":9162,"▁niss":9163,"▁nope":9164,"▁nyp":9165,"▁nts":9166,"▁nuff":9167,"▁naren":9168,"▁nba":9169,"▁niag":9170,"▁nrc":9171,"▁nnw":9172,"▁nerv":9173,"▁niall":9174,"▁nixon":9175,"ilver":9176,"ilight":9177,"ilated":9178,"ilte":9179,"▁gd":9180,"▁gn":9181,"▁gro":9182,"▁gis":9183,"▁gur":9184,"▁gent":9185,"▁gag":9186,"▁gif":9187,"▁gail":9188,"▁gaz":9189,"▁gary":9190,"▁gaw":9191,"▁gyp":9192,"▁goul":9193,"▁gulf":9194,"▁gmm":9195,"▁gett":9196,"▁gander":9197,"▁gorgeous":9198,"▁gansey":9199,"roa":9200,"rob":9201,"roat":9202,"roid":9203,"root":9204,"roke":9205,"roch":9206,"rook":9207,"rooper":9208,"robin":9209,"isi":9210,"isu":9211,"isen":9212,"ispo":9213,"isnot":9214,"olo":9215,"ols":9216,"oly":9217,"olat":9218,"olic":9219,"olis":9220,"olly":9221,"olation":9222,"olce":9223,"olie":9224,"olition":9225,"ollege":9226,"▁rey":9227,"▁rene":9228,"▁rebe":9229,"▁reinst":9230,"▁reagan":9231,"▁reef":9232,"▁rejected":9233,"raz":9234,"raod":9235,"raft":9236,"rays":9237,"raps":9238,"raki":9239,"omet":9240,"omrad":9241,"omato":9242,"elen":9243,"elap":9244,"elie":9245,"elug":9246,"elphia":9247,"ams":9248,"aman":9249,"amil":9250,"amis":9251,"amir":9252,"amous":9253,"amber":9254,"amies":9255,"ido":9256,"idon":9257,"idraps":9258,"ionsw":9259,"acon":9260,"acoll":9261,"acular":9262,"acramento":9263,"acerb":9264,"accident":9265,"ayo":9266,"ays":9267,"ayla":9268,"otive":9269,"othing":9270,"otcom":9271,"uri":9272,"urt":9273,"uror":9274,"urne":9275,"urkin":9276,"urrender":9277,"urgis":9278,"kec":9279,"kem":9280,"kest":9281,"keter":9282,"keep":9283,"kemon":9284,"kefeller":9285,"▁sts":9286,"▁stu":9287,"▁sty":9288,"▁stag":9289,"▁stack":9290,"▁stem":9291,"▁stall":9292,"▁stout":9293,"▁stole":9294,"▁stans":9295,"▁stark":9296,"▁states":9297,"▁stroke":9298,"▁sturgis":9299,"▁dee":9300,"▁dey":9301,"▁deact":9302,"▁delete":9303,"uns":9304,"unews":9305,"unte":9306,"unts":9307,"unted":9308,"unette":9309,"iga":9310,"igin":9311,"igil":9312,"asant":9313,"asles":9314,"asolar":9315,"add":9316,"adl":9317,"ading":9318,"adas":9319,"ados":9320,"adog":9321,"adeth":9322,"addict":9323,"adelphia":9324,"vement":9325,"vegas":9326,"vember":9327,"ento":9328,"ents":9329,"entless":9330,"entially":9331,"▁rb":9332,"▁rj":9333,"▁rr":9334,"▁rated":9335,"▁rue":9336,"▁rond":9337,"▁rory":9338,"▁rsp":9339,"▁rival":9340,"▁rih":9341,"▁rpics":9342,"▁rcmp":9343,"usan":9344,"usky":9345,"owler":9346,"owae":9347,"owitz":9348,"etry":9349,"etown":9350,"etos":9351,"etwo":9352,"etjw":9353,"▁vv":9354,"▁vent":9355,"▁vag":9356,"▁vab":9357,"▁vice":9358,"▁vash":9359,"▁vix":9360,"▁vida":9361,"▁various":9362,"▁vince":9363,"▁veld":9364,"▁voted":9365,"▁vantage":9366,"▁vgboot":9367,"▁vicinity":9368,"▁vigil":9369,"imk":9370,"imo":9371,"imel":9372,"imag":9373,"imota":9374,"cha":9375,"chi":9376,"ched":9377,"chel":9378,"chem":9379,"chant":9380,"chip":9381,"chapp":9382,"change":9383,"chased":9384,"chief":9385,"chicago":9386,"▁inû":9387,"▁inec":9388,"▁inmate":9389,"esom":9390,"esex":9391,"esback":9392,"esboro":9393,"▁nev":9394,"▁neil":9395,"▁neck":9396,"▁kg":9397,"▁kp":9398,"▁kor":9399,"▁kun":9400,"▁kir":9401,"▁kap":9402,"▁kos":9403,"▁kirst":9404,"▁kather":9405,"▁kith":9406,"▁khan":9407,"▁kany":9408,"▁kalin":9409,"▁kowing":9410,"▁karma":9411,"▁kiev":9412,"▁krefeld":9413,"▁kraft":9414,"▁tha":9415,"▁thy":9416,"▁thom":9417,"▁thest":9418,"▁thew":9419,"▁thrown":9420,"▁thief":9421,"▁thyro":9422,"▁throat":9423,"iri":9424,"irandeal":9425,"agu":9426,"agen":9427,"agil":9428,"agick":9429,"agull":9430,"▁ost":9431,"▁oct":9432,"▁oph":9433,"▁oso":9434,"▁ogt":9435,"▁overs":9436,"▁optic":9437,"cture":9438,"lyc":9439,"lym":9440,"▁liv":9441,"▁liver":9442,"▁livel":9443,"▁liable":9444,"▁livest":9445,"▁liability":9446,"vere":9447,"veranom":9448,"opl":9449,"▁cho":9450,"▁chp":9451,"▁chan":9452,"▁chas":9453,"▁chow":9454,"▁chap":9455,"▁chand":9456,"▁chip":9457,"▁chub":9458,"▁chuck":9459,"▁charm":9460,"▁chose":9461,"▁chron":9462,"▁cherry":9463,"▁changing":9464,"▁chonce":9465,"▁chattan":9466,"thard":9467,"thep":9468,"thought":9469,"thenews":9470,"thomp":9471,"apa":9472,"apocal":9473,"aporama":9474,"apolis":9475,"andom":9476,"anders":9477,"andemonium":9478,"▁yu":9479,"▁yam":9480,"▁yum":9481,"▁your":9482,"▁youg":9483,"▁yog":9484,"▁ypre":9485,"▁yonews":9486,"▁yankee":9487,"▁jp":9488,"▁jag":9489,"▁jak":9490,"▁jage":9491,"▁jok":9492,"▁jann":9493,"▁jade":9494,"▁junk":9495,"▁jana":9496,"▁jerry":9497,"▁jumper":9498,"▁jailed":9499,"▁jeep":9500,"▁jkl":9501,"▁jhaust":9502,"▁jedi":9503,"▁jdabe":9504,"▁juror":9505,"loz":9506,"loor":9507,"local":9508,"loops":9509,"idemic":9510,"see":9511,"sect":9512,"sept":9513,"season":9514,"seven":9515,"seye":9516,"acked":9517,"▁shan":9518,"▁shed":9519,"▁sham":9520,"▁shay":9521,"▁shes":9522,"▁shia":9523,"▁shiz":9524,"▁shade":9525,"▁shore":9526,"▁shuff":9527,"▁shatter":9528,"▁shaker":9529,"▁shania":9530,"▁shira":9531,"▁shaped":9532,"utd":9533,"utt":9534,"utz":9535,"utia":9536,"▁sep":9537,"▁seed":9538,"▁seal":9539,"▁seaw":9540,"▁select":9541,"▁sewer":9542,"▁selection":9543,"▁seagull":9544,"river":9545,"riage":9546,"ript":9547,"ribean":9548,"ulz":9549,"ulse":9550,"ulating":9551,"umer":9552,"umes":9553,"emur":9554,"emans":9555,"emix":9556,"emories":9557,"ights":9558,"ants":9559,"antry":9560,"antib":9561,"antto":9562,"antiqu":9563,"illed":9564,"▁ams":9565,"▁ames":9566,"▁amate":9567,"▁amageddon":9568,"▁ameen":9569,"shh":9570,"shall":9571,"shine":9572,"shaw":9573,"shai":9574,"shoot":9575,"sheriff":9576,"esth":9577,"▁newû":9578,"▁newbie":9579,"▁newzs":9580,"▁newberg":9581,"▁loret":9582,"▁logan":9583,"▁locom":9584,"▁looooo":9585,"▁looter":9586,"iston":9587,"isting":9588,"istent":9589,"istics":9590,"istannews":9591,"istorical":9592,"ormed":9593,"ormous":9594,"aka":9595,"aky":9596,"akar":9597,"ssil":9598,"ssom":9599,"ssel":9600,"ssler":9601,"▁exter":9602,"▁exting":9603,"▁exited":9604,"▁exacerb":9605,"allhearton":9606,"ders":9607,"derer":9608,"dered":9609,"derly":9610,"derailed":9611,"derabad":9612,"▁ani":9613,"▁anim":9614,"▁anell":9615,"▁anarch":9616,"▁anza":9617,"▁aniston":9618,"quet":9619,"quote":9620,"quality":9621,"quito":9622,"term":9623,"▁trace":9624,"▁tragic":9625,"▁trading":9626,"▁travis":9627,"▁traverse":9628,"iex":9629,"ieged":9630,"ugal":9631,"▁congr":9632,"▁connor":9633,"▁convert":9634,"▁firey":9635,"▁fireû":9636,"▁firework":9637,"▁firetr":9638,"▁arnhem":9639,"▁bla":9640,"▁blank":9641,"▁blonde":9642,"▁blunt":9643,"▁blutz":9644,"▁suh":9645,"▁subc":9646,"▁suprem":9647,"▁alh":9648,"▁als":9649,"▁alot":9650,"▁alph":9651,"▁alloy":9652,"▁alois":9653,"abi":9654,"aber":9655,"abor":9656,"abeth":9657,"aboss":9658,"abello":9659,"abbott":9660,"▁leon":9661,"▁leban":9662,"▁leaked":9663,"▁worn":9664,"▁placed":9665,"▁plastic":9666,"▁placing":9667,"▁pllol":9668,"▁pluto":9669,"▁pledge":9670,"▁plenty":9671,"▁platform":9672,"itythe":9673,"ipin":9674,"iping":9675,"iple":9676,"ipoli":9677,"▁spr":9678,"▁spit":9679,"▁spam":9680,"▁spell":9681,"▁spont":9682,"▁spoke":9683,"▁spray":9684,"▁sponsor":9685,"▁sponge":9686,"ildren":9687,"nington":9688,"omever":9689,"ombia":9690,"omberg":9691,"atts":9692,"▁disorder":9693,"▁dismiss":9694,"▁goon":9695,"▁gosh":9696,"▁goof":9697,"▁gooooooo":9698,"▁golem":9699,"▁gofund":9700,"ifornia":9701,"ifying":9702,"ifies":9703,"ageos":9704,"▁trp":9705,"▁tru":9706,"▁truel":9707,"▁trinity":9708,"▁trancy":9709,"▁trillion":9710,"▁tricia":9711,"ailable":9712,"▁ros":9713,"▁rover":9714,"▁roger":9715,"▁roster":9716,"▁rohn":9717,"▁rogue":9718,"heric":9719,"ounds":9720,"arde":9721,"ardu":9722,"pler":9723,"plot":9724,"plus":9725,"pline":9726,"plif":9727,"placed":9728,"avan":9729,"avage":9730,"avalanche":9731,"avior":9732,"elli":9733,"ells":9734,"▁ampst":9735,"▁proc":9736,"▁prol":9737,"▁proof":9738,"▁proxy":9739,"oki":9740,"▁ram":9741,"▁raw":9742,"▁racc":9743,"▁rahe":9744,"▁raised":9745,"▁raider":9746,"▁ramm":9747,"▁ramp":9748,"▁raung":9749,"▁razing":9750,"▁raì1⁄4":9751,"▁rapping":9752,"▁rachel":9753,"indyn":9754,"phil":9755,"ustrated":9756,"ustomed":9757,"geon":9758,"mers":9759,"merman":9760,"merchant":9761,"endrick":9762,"▁mania":9763,"▁managed":9764,"▁manuf":9765,"▁manifest":9766,"▁manutd":9767,"ewr":9768,"ewis":9769,"eway":9770,"ewantto":9771,"ubcont":9772,"ubaraa":9773,"uddle":9774,"uregu":9775,"▁weallhearton":9776,"▁core":9777,"▁coil":9778,"▁coch":9779,"▁coaster":9780,"▁cosp":9781,"▁coinc":9782,"▁cogn":9783,"▁coahu":9784,"▁cocaine":9785,"▁coyote":9786,"ivative":9787,"▁evans":9788,"▁evanston":9789,"▁scra":9790,"▁scout":9791,"▁scour":9792,"▁scwx":9793,"▁scuf":9794,"▁scandal":9795,"▁scorpion":9796,"▁scratch":9797,"▁sahib":9798,"▁bean":9799,"▁beet":9800,"▁behead":9801,"▁peac":9802,"▁peak":9803,"▁como":9804,"▁comic":9805,"▁residual":9806,"azine":9807,"▁ûa":9808,"▁ûn":9809,"▁ûåê":9810,"▁ûface":9811,"▁ûgood":9812,"▁ûplot":9813,"▁unr":9814,"▁unt":9815,"▁unity":9816,"▁unite":9817,"▁unrest":9818,"▁uncom":9819,"▁unrel":9820,"▁uncont":9821,"▁unto":9822,"▁unique":9823,"▁unnec":9824,"▁unstable":9825,"ickin":9826,"artz":9827,"▁fossil":9828,"▁prez":9829,"▁prepp":9830,"▁prepper":9831,"▁premon":9832,"▁preorder":9833,"▁preseason":9834,"anne":9835,"anny":9836,"anner":9837,"annah":9838,"anndty":9839,"▁collins":9840,"▁heel":9841,"▁hehe":9842,"▁heys":9843,"essa":9844,"esser":9845,"essed":9846,"▁isil":9847,"ahy":9848,"ahrary":9849,"ishop":9850,"▁boise":9851,"▁bobc":9852,"imehh":9853,"▁fled":9854,"▁flush":9855,"▁flaw":9856,"▁fluid":9857,"ourt":9858,"ouring":9859,"ourse":9860,"ourry":9861,"ornian":9862,"orngang":9863,"▁newswatch":9864,"▁newsgold":9865,"▁newsarama":9866,"osl":9867,"osure":9868,"osaur":9869,"▁cld":9870,"▁clap":9871,"▁clown":9872,"▁cleric":9873,"▁claire":9874,"▁hiker":9875,"mental":9876,"▁quot":9877,"▁quant":9878,"▁quoted":9879,"▁quartz":9880,"aths":9881,"athon":9882,"▁warrior":9883,"▁burgl":9884,"▁whose":9885,"▁whene":9886,"▁wheat":9887,"▁whoop":9888,"▁whatever":9889,"▁whoever":9890,"▁whomever":9891,"berra":9892,"berts":9893,"berroa":9894,"▁buch":9895,"pers":9896,"pered":9897,"peror":9898,"perty":9899,"persed":9900,"▁cali":9901,"▁polar":9902,"tony":9903,"club":9904,"▁phew":9905,"▁phase":9906,"▁attic":9907,"▁attained":9908,"▁attract":9909,"▁attraction":9910,"▁knight":9911,"▁kneel":9912,"▁offr":9913,"▁offram":9914,"▁enû":9915,"▁enact":9916,"▁enca":9917,"▁encore":9918,"▁enabled":9919,"▁enhanced":9920,"▁enroute":9921,"▁enormous":9922,"angi":9923,"angirl":9924,"▁britt":9925,"▁bruise":9926,"▁brisk":9927,"▁brunette":9928,"blr":9929,"blake":9930,"blown":9931,"bliss":9932,"blower":9933,"▁suruc":9934,"▁surger":9935,"▁surfer":9936,"▁surrender":9937,"▁suruì":9938,"▁suryar":9939,"▁carb":9940,"▁carr":9941,"▁carlos":9942,"▁carib":9943,"▁carpet":9944,"▁carolina":9945,"ocv":9946,"ocris":9947,"ocracy":9948,"▁videoveranom":9949,"▁usar":9950,"▁cafire":9951,"▁cawx":9952,"▁cairo":9953,"▁caesar":9954,"iza":9955,"izer":9956,"izon":9957,"izbw":9958,"izabeth":9959,"sonido":9960,"▁cruise":9961,"▁crusty":9962,"errorism":9963,"ondent":9964,"▁mov":9965,"▁mole":9966,"▁mosh":9967,"▁moore":9968,"▁moham":9969,"▁moores":9970,"▁mobile":9971,"▁moyo":9972,"▁ims":9973,"▁imdb":9974,"feed":9975,"▁emerg":9976,"▁emerges":9977,"▁fez":9978,"▁feinstein":9979,"▁fevwar":9980,"▁fatally":9981,"▁fatbur":9982,"▁tease":9983,"▁teeth":9984,"▁everybody":9985,"▁everytime":9986,"ensc":9987,"ensi":9988,"ensû":9989,"ensed":9990,"▁marley":9991,"▁marlon":9992,"▁marketer":9993,"▁marshall":9994,"▁twove":9995,"▁twcnews":9996,"▁twilight":9997,"▁homeowner":9998,"ampi":9999,"amplost":10000,"iott":10001,"▁smiling":10002,"▁bodybag":10003,"ooga":10004,"ooza":10005,"▁accustomed":10006,"ept":10007,"▁destruct":10008,"▁destination":10009,"▁helen":10010,"▁helene":10011,"▁helsink":10012,"▁helpline":10013,"waystan":10014,"▁serve":10015,"▁abia":10016,"▁abused":10017,"▁abubaraa":10018,"isman":10019,"▁contruction":10020,"▁contract":10021,"▁mayor":10022,"▁daytoday":10023,"ashima":10024,"▁redd":10025,"▁redes":10026,"▁rediscover":10027,"▁redhanded":10028,"▁fatalities":10029,"▁joined":10030,"ucing":10031,"ucleard":10032,"▁backpack":10033,"ullen":10034,"undry":10035,"▁wildhorses":10036,"▁worldwide":10037,"aves":10038,"anka":10039,"actured":10040,"▁demi":10041,"▁dems":10042,"▁greedy":10043,"▁stormchase":10044,"oons":10045,"oonanheart":10046,"▁mina":10047,"▁minus":10048,"▁minhaz":10049,"▁minimehh":10050,"▁expans":10051,"▁expose":10052,"▁expense":10053,"▁exposed":10054,"▁exposure":10055,"▁evacuating":10056,"▁zero":10057,"▁zabad":10058,"▁zipper":10059,"▁californian":10060,"elynbc":10061,"▁earn":10062,"▁earned":10063,"▁earbuds":10064,"▁derivative":10065,"▁poem":10066,"▁pokemon":10067,"▁april":10068,"▁guarant":10069,"ernû":10070,"ontop":10071,"▁hearitfro":10072,"sland":10073,"▁meinlcy":10074,"▁measles":10075,"▁massmur":10076,"▁desk":10077,"▁desper":10078,"▁outage":10079,"▁outlet":10080,"▁outfit":10081,"▁outbid":10082,"▁switch":10083,"▁sweep":10084,"▁swept":10085,"▁bago":10086,"▁adri":10087,"▁adorable":10088,"▁suicidebomb":10089,"uality":10090,"▁letsf":10091,"learoncancer":10092,"▁indi":10093,"▁indy":10094,"▁indec":10095,"▁index":10096,"▁indiff":10097,"▁indoors":10098,"▁screamque":10099,"▁rtamerica":10100,"ersburg":10101,"▁emi":10102,"▁emil":10103,"▁emile":10104,"▁emsc":10105,"▁emmy":10106,"▁emperor":10107,"▁windy":10108,"▁deadliest":10109,"ptation":10110,"▁dambis":10111,"▁pmharper":10112,"▁pmarca":10113,"newsdesk":10114,"▁grind":10115,"underground":10116,"armmos":10117,"▁delta":10118,"▁delicious":10119,"▁northland":10120,"awal":10121,"aware":10122,"awniest":10123,"coop":10124,"coach":10125,"coffee":10126,"▁legio":10127,"▁legisl":10128,"iley":10129,"▁uptown":10130,"▁upwards":10131,"▁uploading":10132,"▁bestseller":10133,"▁perry":10134,"▁perquisite":10135,"▁permit":10136,"▁pertains":10137,"▁diff":10138,"▁divers":10139,"▁diverse":10140,"▁diarr":10141,"▁diaporama":10142,"▁diageos":10143,"▁interstate":10144,"▁interlaken":10145,"bob":10146,"▁maketh":10147,"▁cannon":10148,"landers":10149,"rises":10150,"▁remark":10151,"▁playstation":10152,"econ":10153,"mania":10154,"kett":10155,"plex":10156,"▁women":10157,"ressing":10158,"ressive":10159,"alks":10160,"owery":10161,"▁explain":10162,"▁explicit":10163,"▁destroyer":10164,"okee":10165,"▁feelin":10166,"jacker":10167,"▁busy":10168,"▁okg":10169,"▁okt":10170,"▁secured":10171,"▁schwar":10172,"▁horizon":10173,"▁rained":10174,"▁rainier":10175,"▁brooke":10176,"▁refund":10177,"▁hiroshim":10178,"▁pancake":10179,"▁atk":10180,"▁atle":10181,"▁bloodym":10182,"▁murfre":10183,"▁insas":10184,"▁insight":10185,"▁insult":10186,"▁insomn":10187,"▁insubcont":10188,"apons":10189,"▁servant":10190,"ansa":10191,"ansûa":10192,"▁afc":10193,"▁afp":10194,"▁mili":10195,"▁milwau":10196,"▁missile":10197,"▁acted":10198,"▁actor":10199,"▁actress":10200,"neal":10201,"needs":10202,"neelynbc":10203,"▁xb":10204,"▁xl":10205,"▁xox":10206,"▁xavier":10207,"▁fran":10208,"▁friggin":10209,"▁typ":10210,"▁typical":10211,"▁typo":10212,"▁medal":10213,"▁meditation":10214,"▁happily":10215,"ekid":10216,"▁obam":10217,"▁obvious":10218,"▁obispo":10219,"losed":10220,"▁photoset":10221,"beck":10222,"beans":10223,"▁slid":10224,"▁slight":10225,"▁slave":10226,"▁slipped":10227,"▁slicker":10228,"▁recreates":10229,"▁respected":10230,"hings":10231,"▁kevin":10232,"intend":10233,"▁ib":10234,"▁ij":10235,"rophone":10236,"▁japton":10237,"▁hottest":10238,"▁asf":10239,"▁asics":10240,"▁asyl":10241,"▁aspect":10242,"▁asbury":10243,"ousey":10244,"▁realised":10245,"▁realization":10246,"▁rightways":10247,"▁rightwaystan":10248,"▁rioter":10249,"▁thankful":10250,"▁thankfully":10251,"▁blackpool":10252,"▁quarrel":10253,"uchi":10254,"uchov":10255,"▁irony":10256,"▁irvine":10257,"▁snd":10258,"▁snake":10259,"▁snuff":10260,"▁sniping":10261,"▁forû":10262,"▁forrest":10263,"▁forsure":10264,"▁longterm":10265,"▁hazmat":10266,"▁eyec":10267,"▁watertown":10268,"▁watermel":10269,"ofest":10270,"ofree":10271,"hea":10272,"heat":10273,"▁setlist":10274,"▁lolol":10275,"▁ruther":10276,"▁cheat":10277,"▁cheap":10278,"▁cheyen":10279,"▁chevro":10280,"▁cheetos":10281,"▁headquarter":10282,"▁hazardd":10283,"▁uf":10284,"▁uv":10285,"▁creating":10286,"▁creates":10287,"ancindyn":10288,"▁musik":10289,"▁fallacy":10290,"ultaneous":10291,"▁anyways":10292,"▁finished":10293,"rete":10294,"▁elsa":10295,"▁elbow":10296,"▁elizabeth":10297,"▁fatalityus":10298,"science":10299,"scrim":10300,"▁liveonline":10301,"▁liveleak":10302,"▁endanger":10303,"▁endures":10304,"▁endorses":10305,"▁ski":10306,"▁skim":10307,"▁skipping":10308,"▁skanndty":10309,"▁particip":10310,"▁strut":10311,"emberth":10312,"auga":10313,"augh":10314,"▁curren":10315,"▁curios":10316,"▁nato":10317,"▁natalie":10318,"▁vibez":10319,"▁compound":10320,"▁compens":10321,"▁component":10322,"▁avenger":10323,"▁avoided":10324,"▁available":10325,"▁colo":10326,"▁colder":10327,"▁noted":10328,"▁notley":10329,"▁notexpl":10330,"▁stateû":10331,"▁edge":10332,"▁investing":10333,"▁engage":10334,"▁engva":10335,"▁greatbritish":10336,"ertpark":10337,"▁postbattle":10338,"▁malik":10339,"▁function":10340,"▁ûïs":10341,"▁ûïyou":10342,"▁ûïbbc":10343,"▁ûïstret":10344,"eddy":10345,"eddesolate":10346,"▁household":10347,"leyball":10348,"▁neverending":10349,"▁theological":10350,"▁theadvocate":10351,"cons":10352,"conflict":10353,"▁hitch":10354,"▁acdel":10355,"▁acquis":10356,"▁infose":10357,"▁infilt":10358,"▁infinity":10359,"▁inferno":10360,"▁infinite":10361,"▁infamous":10362,"▁infantry":10363,"▁showing":10364,"▁confirmation":10365,"▁crossborder":10366,"▁meter":10367,"▁metlife":10368,"▁careless":10369,"▁topstories":10370,"▁withdra":10371,"▁hopein":10372,"gae":10373,"sox":10374,"åêc":10375,"åêch":10376,"åêinåê":10377,"▁vessel":10378,"eltbgt":10379,"▁investigate":10380,"gins":10381,"▁somewhere":10382,"▁barra":10383,"▁barry":10384,"▁baruch":10385,"▁barring":10386,"▁barrier":10387,"▁pickup":10388,"▁pickens":10389,"▁pickerel":10390,"▁hella":10391,"▁weekold":10392,"ootball":10393,"▁nightmar":10394,"▁repay":10395,"alloway":10396,"downe":10397,"▁betz":10398,"▁handle":10399,"▁handling":10400,"▁gtii":10401,"▁gtfo":10402,"▁oped":10403,"oughout":10404,"▁sounding":10405,"▁freefrom":10406,"▁draw":10407,"▁drain":10408,"▁suspense":10409,"▁badge":10410,"▁waist":10411,"▁epidemic":10412,"▁steak":10413,"▁standwith":10414,"▁summertime":10415,"▁kidding":10416,"ielle":10417,"spondent":10418,"reatening":10419,"▁council":10420,"▁commod":10421,"▁command":10422,"▁commenc":10423,"▁comingsoon":10424,"▁southwest":10425,"obser":10426,"obiography":10427,"ranted":10428,"▁humble":10429,"▁urs":10430,"▁uranium":10431,"▁tomato":10432,"▁tomcat":10433,"▁glen":10434,"▁glink":10435,"▁glenn":10436,"▁glimp":10437,"▁gloria":10438,"▁glouce":10439,"iik":10440,"▁itz":10441,"▁sandy":10442,"▁mommy":10443,"rolled":10444,"▁volta":10445,"▁voluntary":10446,"▁volunte":10447,"▁volleyball":10448,"▁keeping":10449,"▁holed":10450,"▁holmg":10451,"▁awwww":10452,"▁awaits":10453,"▁awkward":10454,"▁awesom":10455,"▁listing":10456,"▁explosive":10457,"▁areaû":10458,"▁entrepren":10459,"▁signup":10460,"▁canon":10461,"▁canoe":10462,"▁canvas":10463,"▁canberra":10464,"▁pakpattan":10465,"▁pakistannews":10466,"▁modest":10467,"▁modern":10468,"▁moderate":10469,"▁specie":10470,"▁rockstar":10471,"▁rockbott":10472,"▁lightningca":10473,"yser":10474,"▁brace":10475,"▁brass":10476,"▁blossom":10477,"▁bloomberg":10478,"▁weston":10479,"▁westeros":10480,"▁genev":10481,"▁genius":10482,"▁income":10483,"▁incase":10484,"▁ohmy":10485,"fficient":10486,"▁artific":10487,"▁transgen":10488,"▁heartwarming":10489,"▁migrantsû":10490,"▁onlin":10491,"▁patna":10492,"▁subm":10493,"▁subst":10494,"▁subtle":10495,"brk":10496,"bridge":10497,"iede":10498,"iedicaro":10499,"▁utv":10500,"▁utah":10501,"▁downfall":10502,"▁downstairs":10503,"▁downpour":10504,"alfunko":10505,"▁lotz":10506,"▁grain":10507,"▁grass":10508,"▁gravel":10509,"▁instantly":10510,"▁supply":10511,"▁marketforce":10512,"▁salty":10513,"▁salman":10514,"▁salvis":10515,"▁bangin":10516,"▁parade":10517,"▁invited":10518,"▁invaded":10519,"▁spilled":10520,"▁bridgeport":10521,"▁snowy":10522,"▁snowball":10523,"▁snowden":10524,"▁followback":10525,"▁temp":10526,"▁temec":10527,"▁temptation":10528,"▁starving":10529,"imatepco":10530,"▁costly":10531,"▁personally":10532,"▁personnel":10533,"ikh":10534,"iko":10535,"ermac":10536,"▁dove":10537,"▁duststorm":10538,"▁dustpig":10539,"▁regime":10540,"▁relive":10541,"▁religion":10542,"▁relentless":10543,"▁tonightûas":10544,"▁coursing":10545,"▁winning":10546,"▁winner":10547,"▁agn":10548,"▁wordpress":10549,"▁display":10550,"▁impro":10551,"▁impos":10552,"▁impending":10553,"▁imprison":10554,"▁impulse":10555,"▁impressive":10556,"▁ruining":10557,"crash":10558,"comedy":10559,"▁coping":10560,"▁copper":10561,"▁copped":10562,"▁myth":10563,"▁myfitness":10564,"▁stockton":10565,"▁ruby":10566,"▁teamstream":10567,"ibi":10568,"▁campfire":10569,"▁pasta":10570,"▁midget":10571,"▁midwest":10572,"▁midnight":10573,"▁midsouth":10574,"▁mosquito":10575,"steria":10576,"itchen":10577,"izzo":10578,"izzy":10579,"▁countynews":10580,"flame":10581,"flix":10582,"woods":10583,"ynet":10584,"ynkelly":10585,"▁favs":10586,"▁decent":10587,"▁decrease":10588,"▁superstition":10589,"▁whitehouse":10590,"▁addition":10591,"▁addict":10592,"▁exploding":10593,"▁explodes":10594,"▁cameo":10595,"▁talkin":10596,"▁talkradio":10597,"▁morbid":10598,"▁motion":10599,"▁labor":10600,"▁label":10601,"▁lavender":10602,"▁harsh":10603,"▁harass":10604,"▁harris":10605,"▁harwich":10606,"▁retire":10607,"▁retract":10608,"▁possibility":10609,"kker":10610,"▁hunting":10611,"▁dealbreaker":10612,"chez":10613,"check":10614,"chebag":10615,"▁shooter":10616,"bald":10617,"hhh":10618,"wealth":10619,"weapons":10620,"▁hardy":10621,"▁hardly":10622,"▁hardcore":10623,"ursdays":10624,"▁define":10625,"▁rdhorn":10626,"▁justmar":10627,"▁justified":10628,"▁justifying":10629,"fferson":10630,"▁extensive":10631,"▁extension":10632,"▁extender":10633,"▁presence":10634,"▁preservation":10635,"delo":10636,"delsonido":10637,"▁saturn":10638,"▁socket":10639,"▁palermo":10640,"▁frequ":10641,"▁freestyle":10642,"▁fresno":10643,"▁freeway":10644,"▁donation":10645,"▁donington":10646,"▁donåt":10647,"▁riversis":10648,"▁underwater":10649,"▁underwriter":10650,"covered":10651,"people":10652,"▁sunni":10653,"▁sunshine":10654,"▁countless":10655,"▁tsunamies":10656,"▁pete":10657,"▁peter":10658,"▁peterj":10659,"▁reacted":10660,"thebomb":10661,"▁healthy":10662,"▁asks":10663,"▁askcharley":10664,"▁beauty":10665,"▁volcanoåêinåê":10666,"babes":10667,"babwe":10668,"▁walked":10669,"▁threaten":10670,"▁prepares":10671,"▁preparing":10672,"clusion":10673,"▁icl":10674,"▁iconic":10675,"▁camper":10676,"▁camilac":10677,"▁potentially":10678,"▁magner":10679,"▁magisters":10680,"▁finding":10681,"alanches":10682,"▁hahah":10683,"▁strip":10684,"▁striking":10685,"▁overwork":10686,"▁overtime":10687,"▁bluepr":10688,"▁peacefully":10689,"▁forex":10690,"eeks":10691,"▁skyline":10692,"▁skywar":10693,"dev":10694,"anyahu":10695,"▁poplar":10696,"▁deny":10697,"▁denial":10698,"▁denali":10699,"▁drool":10700,"▁dropping":10701,"▁nowhere":10702,"▁kindly":10703,"▁kindness":10704,"▁tweetlike":10705,"tense":10706,"▁era":10707,"▁ergo":10708,"▁ante":10709,"▁antonio":10710,"▁dieplease":10711,"▁learned":10712,"▁assass":10713,"▁assistant":10714,"▁messi":10715,"▁messed":10716,"▁hatred":10717,"▁ashley":10718,"▁ashayo":10719,"▁november":10720,"▁concrete":10721,"kaine":10722,"▁ignor":10723,"▁ignore":10724,"▁ignored":10725,"insight":10726,"insider":10727,"▁simon":10728,"▁simulation":10729,"▁simultaneous":10730,"▁could":10731,"▁courage":10732,"▁testing":10733,"▁treeporn":10734,"▁payday":10735,"▁purchased":10736,"▁formation":10737,"itssept":10738,"▁geomet":10739,"▁geyser":10740,"▁restive":10741,"▁restoring":10742,"▁studio":10743,"▁intrig":10744,"▁jonvoy":10745,"▁completed":10746,"▁briton":10747,"▁britney":10748,"▁techesback":10749,"▁pointing":10750,"▁frontlines":10751,"afs":10752,"after":10753,"cedented":10754,"calgary":10755,"california":10756,"▁otherû":10757,"▁solitude":10758,"▁solicitor":10759,"▁www":10760,"▁nylon":10761,"▁firefighting":10762,"▁blizzhero":10763,"▁promote":10764,"▁coverage":10765,"▁safari":10766,"▁pressed":10767,"▁stretcherbear":10768,"▁civilization":10769,"system":10770,"▁allin":10771,"▁alllive":10772,"▁sanit":10773,"▁micom":10774,"▁microphone":10775,"▁danisnot":10776,"▁ltlt":10777,"▁ltbgt":10778,"▁eastward":10779,"▁eastbound":10780,"▁jeann":10781,"▁jealous":10782,"▁foxnew":10783,"▁pretend":10784,"▁philip":10785,"▁philadelphia":10786,"works":10787,"▁qz":10788,"▁oliver":10789,"▁float":10790,"▁dailykos":10791,"▁nwo":10792,"▁globe":10793,"▁anthony":10794,"▁alarmed":10795,"▁claimed":10796,"▁knocking":10797,"lll":10798,"sfor":10799,"▁soû":10800,"▁soaking":10801,"▁soften":10802,"▁correl":10803,"▁corleoned":10804,"▁publicizing":10805,"▁laois":10806,"▁laundry":10807,"▁autism":10808,"▁autistic":10809,"▁autobiography":10810,"▁esteem":10811,"▁russell":10812,"▁trusty":10813,"▁trusting":10814,"▁flashback":10815,"▁continually":10816,"▁greenway":10817,"▁greenhar":10818,"▁mineral":10819,"▁advice":10820,"▁advised":10821,"▁advanced":10822,"▁motorcraft":10823,"yyyy":10824,"▁sony":10825,"▁billneelynbc":10826,"▁portugal":10827,"▁mishacoll":10828,"▁fleeing":10829,"▁freaking":10830,"▁lawton":10831,"▁lawsu":10832,"▁lawrence":10833,"▁wowo":10834,"▁heroin":10835,"▁heroine":10836,"▁nda":10837,"▁detouring":10838,"▁prevention":10839,"▁seeker":10840,"▁totalitarian":10841,"▁aftershockdelo":10842,"▁davidcamer":10843,"▁åç":10844,"▁åbn":10845,"▁combust":10846,"▁meekmill":10847,"▁dye":10848,"▁dystop":10849,"▁etisal":10850,"▁equate":10851,"▁equally":10852,"▁escaped":10853,"▁escaping":10854,"▁giveaway":10855,"▁poorly":10856,"fields":10857,"grace":10858,"knight":10859,"▁cnnbrk":10860,"▁torrent":10861,"▁fema":10862,"▁exciting":10863,"▁excitement":10864,"▁resulting":10865,"▁climatechange":10866,"▁recording":10867,"▁driverless":10868,"▁arsonistmusic":10869,"▁fukushimatepco":10870,"aelite":10871,"▁squirrel":10872,"▁cancelled":10873,"▁mineenjoy":10874,"▁fourth":10875,"▁strain":10876,"▁strawberry":10877,"▁consent":10878,"▁console":10879,"▁sportwatch":10880,"▁boxing":10881,"ainsaw":10882,"▁johnny":10883,"▁indiannews":10884,"▁globalwarming":10885,"dps":10886,"denver":10887,"denali":10888,"offman":10889,"offfriends":10890,"▁banerj":10891,"▁banquet":10892,"▁mcf":10893,"▁mcmah":10894,"▁dais":10895,"ethreatening":10896,"▁politic":10897,"▁politifi":10898,"▁featured":10899,"▁teenager":10900,"▁absolute":10901,"▁absurd":10902,"▁stronger":10903,"▁strongly":10904,"▁strikesstrikes":10905,"▁britishbakeoff":10906,"▁targeted":10907,"ferrell":10908,"smatter":10909,"success":10910,"▁bitcoin":10911,"▁londonfire":10912,"▁devil":10913,"▁visibility":10914,"ribune":10915,"▁albany":10916,"▁unconscious":10917,"▁cracking":10918,"▁difference":10919,"▁broadcast":10920,"▁responding":10921,"▁financing":10922,"▁infoorder":10923,"▁protecting":10924,"▁protection":10925,"▁protectdenali":10926,"▁questioning":10927,"iatv":10928,"laun":10929,"polis":10930,"twitter":10931,"▁andy":10932,"▁andû":10933,"▁andre":10934,"▁andor":10935,"▁andrew":10936,"▁android":10937,"▁illness":10938,"▁illusion":10939,"▁signing":10940,"▁bbct":10941,"▁bbcl":10942,"▁priest":10943,"▁miyagi":10944,"▁multi":10945,"▁matching":10946,"▁district":10947,"▁distinct":10948,"▁dreaming":10949,"▁worrying":10950,"▁produc":10951,"▁produce":10952,"▁approves":10953,"▁approval":10954,"▁closest":10955,"frost":10956,"guy":10957,"guard":10958,"moretweets":10959,"▁samanthat":10960,"▁samesex":10961,"related":10962,"▁breed":10963,"▁bread":10964,"▁breach":10965,"▁breathing":10966,"▁bask":10967,"▁basis":10968,"▁basically":10969,"▁punch":10970,"▁punished":10971,"▁punjab":10972,"▁puncture":10973,"▁package":10974,"▁doublecup":10975,"▁versethe":10976,"▁throwback":10977,"▁opera":10978,"▁losange":10979,"▁losdelsonido":10980,"▁traveling":10981,"▁iûad":10982,"▁jonathanferrell":10983,"▁technica":10984,"▁generalnews":10985,"incol":10986,"▁tuning":10987,"▁tunes":10988,"▁timelap":10989,"▁timkaine":10990,"▁homs":10991,"▁homie":10992,"▁homeland":10993,"▁hometown":10994,"▁akx":10995,"▁goldstein":10996,"▁routecom":10997,"▁livingsaf":10998,"▁yycstorm":10999,"▁rossum":11000,"▁turkmen":11001,"▁struggling":11002,"▁petitiontake":11003,"▁trek":11004,"▁trey":11005,"▁treated":11006,"▁treating":11007,"▁treasure":11008,"▁pcp":11009,"▁pileup":11010,"▁wmv":11011,"▁wmur":11012,"▁hamburg":11013,"▁nonlife":11014,"▁vanuatu":11015,"▁vanessa":11016,"▁kurt":11017,"▁yahistorical":11018,"▁alexand":11019,"▁alexbell":11020,"▁disappeared":11021,"▁programme":11022,"▁imagined":11023,"▁forgive":11024,"▁priceless":11025,"▁oklahomaok":11026,"kiyou":11027,"instuart":11028,"instagram":11029,"institute":11030,"▁sarcas":11031,"▁sixmet":11032,"▁sixpence":11033,"resq":11034,"▁cowgirl":11035,"▁cowboy":11036,"▁bankstown":11037,"▁macia":11038,"▁fueling":11039,"▁naval":11040,"▁nickcoc":11041,"▁streaming":11042,"odds":11043,"▁riding":11044,"▁ripple":11045,"▁throne":11046,"▁throughout":11047,"▁lovedup":11048,"▁florid":11049,"▁admin":11050,"▁admit":11051,"▁empire":11052,"▁commonwealth":11053,"▁youûall":11054,"▁youûare":11055,"▁regional":11056,"▁eurotun":11057,"nament":11058,"uations":11059,"yeah":11060,"inespn":11061,"▁battered":11062,"▁papi":11063,"▁frack":11064,"▁fragile":11065,"▁fortune":11066,"▁fortunately":11067,"▁fairy":11068,"▁fairfax":11069,"▁darryl":11070,"▁darkest":11071,"▁latin":11072,"▁woodlawn":11073,"▁espn":11074,"▁juliedicaro":11075,"▁sharing":11076,"▁shutdown":11077,"▁loaded":11078,"▁loading":11079,"▁locked":11080,"▁locksmith":11081,"▁loseit":11082,"▁cooking":11083,"▁envw":11084,"▁photograph":11085,"▁increasing":11086,"▁perfectly":11087,"build":11088,"girls":11089,"porter":11090,"▁siding":11091,"▁mistress":11092,"▁mistreated":11093,"▁lionel":11094,"▁hoped":11095,"▁nasasolar":11096,"▁netanyahu":11097,"▁gamer":11098,"▁gambit":11099,"▁renison":11100,"▁vaccine":11101,"▁chilling":11102,"▁located":11103,"▁complication":11104,"▁buffet":11105,"▁sweetyoung":11106,"▁delayed":11107,"▁diamorfi":11108,"boysh":11109,"▁organic":11110,"▁atlantic":11111,"▁electricity":11112,"▁iraqi":11113,"▁debatequest":11114,"▁temperature":11115,"▁protesting":11116,"▁epicenter":11117,"bombed":11118,"cranston":11119,"carribean":11120,"minate":11121,"nelson":11122,"snation":11123,"uppet":11124,"reading":11125,"▁circus":11126,"▁custer":11127,"▁batting":11128,"▁battler":11129,"▁tenno":11130,"▁touched":11131,"▁fitz":11132,"▁dmpl":11133,"▁domain":11134,"▁digging":11135,"▁hyderabad":11136,"▁hysteria":11137,"▁garfield":11138,"▁revolt":11139,"▁requiring":11140,"▁themed":11141,"▁themagick":11142,"▁lifestyle":11143,"▁lifethreatening":11144,"▁jamaicap":11145,"▁connection":11146,"▁rotation":11147,"▁rotator":11148,"▁rotten":11149,"avenicet":11150,"▁rayner":11151,"▁catching":11152,"▁incredibly":11153,"▁correspondent":11154,"▁approaching":11155,"ddd":11156,"justinstuart":11157,"poetry":11158,"track":11159,"traffic":11160,"zzz":11161,"▁sibling":11162,"reygid":11163,"▁biol":11164,"▁batfan":11165,"▁tournament":11166,"▁prisoner":11167,"▁misfit":11168,"▁fifa":11169,"▁fifty":11170,"▁fella":11171,"▁dryer":11172,"▁wisdom":11173,"▁wouldnûat":11174,"engine":11175,"▁hasbro":11176,"▁ronnie":11177,"▁ronaldo":11178,"▁vault":11179,"▁innovation":11180,"▁negro":11181,"▁negot":11182,"▁keratin":11183,"▁challenged":11184,"▁yelling":11185,"▁jacqu":11186,"▁jacque":11187,"▁disruptive":11188,"▁progressive":11189,"▁cockpit":11190,"▁grandpa":11191,"▁vietnamese":11192,"▁engineer":11193,"▁kidnap":11194,"▁brazilian":11195,"▁freshman":11196,"▁announced":11197,"▁announces":11198,"▁automation":11199,"▁butterfinger":11200,"▁floridaû":11201,"carey":11202,"mala":11203,"malik":11204,"inja":11205,"injury":11206,"▁sacramento":11207,"▁balance":11208,"▁pleasure":11209,"▁pumpkin":11210,"▁matak":11211,"▁montgom":11212,"▁montetjw":11213,"▁dickhead":11214,"▁lesley":11215,"▁lmfaoooo":11216,"▁nhl":11217,"▁norman":11218,"▁reopen":11219,"▁reopens":11220,"▁kissed":11221,"▁thetawniest":11222,"▁spaniel":11223,"▁weakness":11224,"▁weakening":11225,"▁wealthy":11226,"▁scottwalker":11227,"▁commerce":11228,"▁precious":11229,"▁bobby":11230,"▁surrounding":11231,"▁abbott":11232,"▁zionism":11233,"▁applies":11234,"▁applaud":11235,"▁missionhill":11236,"▁recommended":11237,"▁magnitude":11238,"▁association":11239,"▁intensifies":11240,"▁cdcgov":11241,"▁newyorker":11242,"▁executing":11243,"disaster":11244,"displaced":11245,"hijacker":11246,"melville":11247,"osha":11248,"williams":11249,"ytube":11250,"▁ipod":11251,"▁ipad":11252,"▁cbsbig":11253,"▁bolt":11254,"▁beneath":11255,"▁posit":11256,"▁mutt":11257,"▁mutant":11258,"▁mutual":11259,"▁mourns":11260,"▁mothernature":11261,"▁furious":11262,"▁douchebag":11263,"▁durant":11264,"▁hipster":11265,"▁housed":11266,"▁hypocris":11267,"▁achimota":11268,"▁njturn":11269,"▁njenga":11270,"▁gaining":11271,"▁greek":11272,"▁reshape":11273,"elsam":11274,"▁katie":11275,"▁katrina":11276,"▁katunews":11277,"▁kasab":11278,"▁chairman":11279,"▁jennas":11280,"▁shelli":11281,"▁royalcarribean":11282,"▁scariest":11283,"▁beclearoncancer":11284,"▁heavenly":11285,"▁joshua":11286,"▁megadeth":11287,"▁megynkelly":11288,"▁appreciated":11289,"▁ironic":11290,"▁ironically":11291,"▁primarily":11292,"▁awareness":11293,"▁regardless":11294,"▁defendant":11295,"▁lowlying":11296,"▁sanctioned":11297,"▁fantasticfour":11298,"▁privacy":11299,"▁journalism":11300,"▁jamaicaobser":11301,"▁rapidcity":11302,"▁yazidi":11303,"▁scheduleû":11304,"djj":11305,"demi":11306,"demolition":11307,"freed":11308,"erdutton":11309,"▁ctd":11310,"▁billy":11311,"▁bakeofffriends":11312,"▁bullseye":11313,"▁paid":11314,"▁ptbo":11315,"▁pennington":11316,"▁mufc":11317,"▁martinm":11318,"▁mccain":11319,"▁mercados":11320,"▁division":11321,"▁divided":11322,"▁layout":11323,"▁hacker":11324,"▁hannah":11325,"▁hannemans":11326,"▁ghostwriter":11327,"railraod":11328,"▁stuns":11329,"▁stunned":11330,"▁riyadh":11331,"▁thereal":11332,"▁ovo":11333,"▁ovofest":11334,"▁liberal":11335,"▁chesttor":11336,"▁juan":11337,"▁juice":11338,"▁jersey":11339,"▁shouting":11340,"▁proposed":11341,"▁raynor":11342,"▁whatsapp":11343,"▁calumet":11344,"▁attempting":11345,"▁zaynmalik":11346,"▁despair":11347,"▁deserve":11348,"▁upgrade":11349,"▁upgrading":11350,"▁upgraded":11351,"▁reflects":11352,"▁inspired":11353,"▁inspiring":11354,"▁compete":11355,"▁editorial":11356,"▁historical":11357,"▁overturn":11358,"▁assisting":11359,"▁noahanyn":11360,"▁joneskyle":11361,"▁condemn":11362,"▁condemnation":11363,"▁torching":11364,"▁jamesmelville":11365,"▁originalfunko":11366,"▁european":11367,"▁demonstration":11368,"▁fergusonûas":11369,"fatal":11370,"lawyer":11371,"movie":11372,"mission":11373,"ojad":11374,"▁sailing":11375,"▁symphony":11376,"▁cadfyi":11377,"▁candle":11378,"▁certified":11379,"▁bundle":11380,"▁bundled":11381,"▁tlc":11382,"▁tlvfac":11383,"▁tanzania":11384,"▁tumbling":11385,"▁tumblr":11386,"▁tunein":11387,"▁pinpoint":11388,"▁pulwama":11389,"▁pushing":11390,"▁penny":11391,"▁mandatory":11392,"▁dlh":11393,"▁dopey":11394,"▁lamb":11395,"▁lamha":11396,"▁wsj":11397,"▁horny":11398,"▁hatchetwield":11399,"legion":11400,"▁efak":11401,"▁nikeplus":11402,"▁receive":11403,"▁deckû":11404,"▁vivian":11405,"▁thedaily":11406,"▁thisizbw":11407,"▁thisiswhy":11408,"▁cheryl":11409,"▁cherokee":11410,"▁jumped":11411,"▁shantae":11412,"▁logistics":11413,"▁argument":11414,"▁sustainable":11415,"▁sustainability":11416,"▁brighton":11417,"▁immig":11418,"▁gregory":11419,"▁explores":11420,"▁northwesternû":11421,"▁permanently":11422,"▁difficulty":11423,"▁orchard":11424,"▁medicine":11425,"▁slammed":11426,"▁casperrmg":11427,"▁cityofcalgary":11428,"▁elliott":11429,"▁partnership":11430,"▁transformed":11431,"▁aggressive":11432,"ovoa":11433,"▁retweeted":11434,"▁software":11435,"▁autoinsurance":11436,"▁performing":11437,"▁performance":11438,"▁titanic":11439,"wwwk":11440,"▁summit":11441,"▁summary":11442,"▁architecture":11443,"▁microsofts":11444,"▁inevitably":11445,"bests":11446,"borne":11447,"bachman":11448,"facts":11449,"foxysiren":11450,"iaram":11451,"millions":11452,"ozi":11453,"▁ouvind":11454,"▁athlete":11455,"▁identitythe":11456,"▁sooo":11457,"recilla":11458,"▁census":11459,"▁cnewslive":11460,"▁ttes":11461,"▁pounded":11462,"▁pierc":11463,"arcia":11464,"▁fading":11465,"▁dante":11466,"▁linden":11467,"▁walter":11468,"▁walerga":11469,"▁wattpad":11470,"▁hiding":11471,"▁hidden":11472,"▁nicole":11473,"▁nosurrender":11474,"▁nostril":11475,"▁nostalgia":11476,"▁gpm":11477,"▁gallipoli":11478,"rocks":11479,"igeon":11480,"odeseries":11481,"▁venice":11482,"▁kotaweather":11483,"▁kenneth":11484,"▁kindermorgan":11485,"▁thirsty":11486,"▁optim":11487,"▁younger":11488,"▁sheeran":11489,"▁sequel":11490,"ulsive":11491,"▁exercise":11492,"▁exercised":11493,"▁conservative":11494,"▁spreading":11495,"▁dispatch":11496,"rylantiqu":11497,"▁beckarn":11498,"▁clueless":11499,"▁queens":11500,"▁whitew":11501,"▁whitbour":11502,"aneously":11503,"generational":11504,"▁ushed":11505,"▁ushanka":11506,"▁abusing":11507,"▁abuseddesolate":11508,"▁redeemeth":11509,"▁zarry":11510,"▁zimbabwe":11511,"▁mechanical":11512,"▁sweater":11513,"▁grandeur":11514,"▁removing":11515,"▁removed":11516,"▁keithyy":11517,"▁sincerely":11518,"▁acquire":11519,"▁monitoring":11520,"▁committed":11521,"▁committee":11522,"▁itsjustinstuart":11523,"▁affiliation":11524,"▁affiliate":11525,"▁improvement":11526,"▁motivation":11527,"▁undergroundrailraod":11528,"▁hahahaha":11529,"▁michelebachman":11530,"▁billionaire":11531,"▁premiere":11532,"▁allegation":11533,"▁allegiance":11534,"▁discussion":11535,"▁atmosphere":11536,"▁atmospheric":11537,"▁growingupblack":11538,"flex":11539,"fortable":11540,"japan":11541,"mischief":11542,"martin":11543,"pastorngang":11544,"wanted":11545,"▁owen":11546,"▁syndrome":11547,"▁crippling":11548,"▁cyprus":11549,"▁bmw":11550,"▁bubble":11551,"▁brewing":11552,"▁tesla":11553,"▁torture":11554,"▁pjnet":11555,"▁pirate":11556,"▁pattonos":11557,"▁pissed":11558,"▁mchenry":11559,"▁mirror":11560,"▁muzzamil":11561,"▁ferrell":11562,"▁fabric":11563,"▁fierce":11564,"▁fouseytube":11565,"▁dedicated":11566,"▁dunbar":11567,"▁dakota":11568,"▁license":11569,"▁lollapal":11570,"▁wrapped":11571,"▁hockey":11572,"▁hermancranston":11573,"▁nankana":11574,"▁noooooooo":11575,"▁reckless":11576,"▁revelation":11577,"aciouss":11578,"▁defeat":11579,"▁ritual":11580,"▁vods":11581,"▁visto":11582,"iminate":11583,"▁kelby":11584,"▁kodiak":11585,"▁kendall":11586,"▁thuggin":11587,"▁oooooohhhh":11588,"▁osborn":11589,"▁jenner":11590,"▁exclusive":11591,"▁exhibition":11592,"▁exhausted":11593,"terrorism":11594,"▁travelling":11595,"▁concluded":11596,"▁ariaahrary":11597,"▁plummeted":11598,"▁spectacular":11599,"▁goku":11600,"▁troubling":11601,"▁prosyn":11602,"▁weyreygid":11603,"▁weighs":11604,"▁evolve":11605,"▁begging":11606,"▁ûitûas":11607,"▁uncertain":11608,"▁unprecedented":11609,"▁predator":11610,"▁whoa":11611,"▁policerun":11612,"▁pharaoh":11613,"▁phantom":11614,"▁phillip":11615,"▁brigade":11616,"▁familia":11617,"▁imperfect":11618,"▁important":11619,"▁marquei":11620,"▁twentynine":11621,"▁zippednews":11622,"▁guatemala":11623,"▁hearthstone":11624,"▁advertised":11625,"▁gridlock":11626,"▁diesis":11627,"▁dijkûa":11628,"▁playthursdays":11629,"▁okinawa":11630,"▁appointment":11631,"▁mississauga":11632,"▁obsessed":11633,"▁keegan":11634,"▁elkhorn":11635,"▁refugees":11636,"▁drifting":11637,"▁collective":11638,"▁theyre":11639,"▁triumph":11640,"▁meteoear":11641,"▁bethlehem":11642,"▁southdowns":11643,"▁principle":11644,"osexuality":11645,"▁oneself":11646,"▁graveyard":11647,"▁salvadoran":11648,"▁starbucks":11649,"▁teamhendrick":11650,"▁freespeech":11651,"▁icelandreview":11652,"▁overlooking":11653,"▁popularmmos":11654,"marketing":11655,"▁testimony":11656,"▁technique":11657,"▁olivia":11658,"▁socialmedia":11659,"▁maintain":11660,"▁squeeze":11661,"▁buddha":11662,"▁multidimensi":11663,"▁distributed":11664,"▁appropriation":11665,"▁samaritansûa":11666,"▁punishment":11667,"▁professional":11668,"▁coworker":11669,"▁administration":11670,"ciusko":11671,"▁renewhealth":11672,"▁jewelry":11673,"▁unfortunately":11674,"▁unfolded":11675,"▁astrology":11676,"hazardous":11677,"▁ethiopian":11678,"▁contributing":11679,"▁hurricanedolce":11680,"▁diplomacy":11681,"▁bradleybrad":11682,"▁bernardino":11683,"▁strengthening":11684,"close":11685,"dreamer":11686,"dramodi":11687,"jewels":11688,"mbals":11689,"surviv":11690,"woman":11691,"welch":11692,"wecanth":11693,"▁iaff":11694,"▁omega":11695,"▁iredell":11696,"▁ivanberroa":11697,"▁seduction":11698,"▁croydon":11699,"▁celtic":11700,"▁cspan":11701,"▁cjoyner":11702,"▁bastard":11703,"▁bistro":11704,"▁bieber":11705,"▁bicep":11706,"▁bancodeseries":11707,"▁toler":11708,"▁tasmania":11709,"▁tokyo":11710,"atulip":11711,"▁porridge":11712,"▁pioneer":11713,"▁pendleton":11714,"▁pivot":11715,"▁mamata":11716,"▁masturb":11717,"▁marek":11718,"▁mukilte":11719,"▁mmmmmm":11720,"▁mafia":11721,"▁msmig":11722,"▁msnbc":11723,"▁mì1⁄4sica":11724,"▁fewmoretweets":11725,"▁ftsn":11726,"▁faulty":11727,"▁diablo":11728,"▁dignity":11729,"▁dothraki":11730,"▁lansdowne":11731,"▁lopez":11732,"▁lancaster":11733,"▁lindsay":11734,"▁linerless":11735,"▁luchaunderground":11736,"▁lubbock":11737,"▁wesley":11738,"▁wacko":11739,"▁wocowae":11740,"▁wftv":11741,"▁wilshere":11742,"english":11743,"▁haveû":11744,"▁hooligan":11745,"▁auckland":11746,"▁aogashima":11747,"▁aquarium":11748,"▁eudrylantiqu":11749,"▁ethereal":11750,"▁noonancindyn":11751,"▁nypd":11752,"▁ntsb":11753,"▁narendramodi":11754,"▁gawx":11755,"▁goulburn":11756,"▁gmmbc":11757,"▁gettin":11758,"▁reinstate":11759,"omradfm":11760,"ionswewantto":11761,"▁stagetwo":11762,"▁deactiv":11763,"▁ruebs":11764,"▁rspca":11765,"▁rihanna":11766,"▁vabengal":11767,"▁vashon":11768,"▁vgbootcamp":11769,"▁kosciusko":11770,"▁katherines":11771,"▁kanye":11772,"▁thyroid":11773,"▁livelihood":11774,"▁livestream":11775,"▁chronicle":11776,"▁chattanooga":11777,"thompson":11778,"▁yougov":11779,"▁ypres":11780,"▁jagex":11781,"▁janaq":11782,"▁jhaustin":11783,"▁shizune":11784,"antibatam":11785,"▁ameenshai":11786,"▁newzsacramento":11787,"▁loretta":11788,"▁locomotive":11789,"▁exterminate":11790,"▁extinguished":11791,"▁exacerbated":11792,"▁anellatulip":11793,"▁firetruck":11794,"▁lebanon":11795,"▁pllolz":11796,"▁spontaneously":11797,"▁gofundme":11798,"▁truelove":11799,"▁triciaoneill":11800,"▁rohnertpark":11801,"▁raheel":11802,"▁rammed":11803,"▁raì1⁄4l":11804,"▁manufactured":11805,"▁weallheartonedirection":11806,"▁cosponsor":11807,"▁coincide":11808,"▁coahuila":11809,"▁evansville":11810,"▁ûåêdemolition":11811,"▁ûfaceless":11812,"▁unrelenting":11813,"▁unnecessary":11814,"▁premonition":11815,"▁bobcat":11816,"▁newsgoldcoast":11817,"▁whenever":11818,"▁attractive":11819,"▁offramp":11820,"▁surgery":11821,"▁suryaray":11822,"▁caribbean":11823,"▁videoveranomtv":11824,"▁mohammed":11825,"▁mooresville":11826,"▁fevwarrior":11827,"▁fatburning":11828,"▁twovehicle":11829,"▁bodybagging":11830,"▁destructive":11831,"▁fatalitiesx":11832,"ucleardeal":11833,"oonanheartbreak":11834,"▁minhazmerchant":11835,"▁zabadani":11836,"▁guaranteed":11837,"▁hearitfromp":11838,"▁meinlcymbals":11839,"▁massmurderer":11840,"▁suicidebombing":11841,"▁letsfootball":11842,"▁indifference":11843,"▁screamqueens":11844,"▁dambisa":11845,"▁legislation":11846,"▁diarrhea":11847,"▁schwarber":11848,"▁murfreesboro":11849,"▁insomnia":11850,"▁insubcontinent":11851,"▁milwaukee":11852,"▁xoxo":11853,"▁obviously":11854,"▁asylum":11855,"▁rutherford":11856,"▁cheyenne":11857,"▁chevrolet":11858,"▁headquarters":11859,"scrims":11860,"▁endangered":11861,"▁skanndtyagi":11862,"▁curiosity":11863,"▁notexplained":11864,"▁engvaus":11865,"▁greatbritishbakeoff":11866,"▁ûïstretcher":11867,"▁theadvocatemag":11868,"▁acdelco":11869,"▁acquisition":11870,"▁infosec":11871,"▁nightmarish":11872,"▁standwithpp":11873,"▁tomcatarts":11874,"▁glimpse":11875,"▁gloucester":11876,"▁volunteer":11877,"▁holmgren":11878,"▁entrepreneur":11879,"▁rockbottomradfm":11880,"▁lightningcaused":11881,"▁geneva":11882,"▁artificial":11883,"▁wordpressdotcom":11884,"▁myfitnesspal":11885,"▁lavenderpoetry":11886,"▁rdhorndale":11887,"▁justmarried":11888,"▁riversiskiyou":11889,"▁tsunamiesh":11890,"▁peterjukes":11891,"▁volcanoåêinåêrussia":11892,"▁camilacabello":11893,"▁blueprint":11894,"▁tweetlikeitssept":11895,"▁geometric":11896,"▁jonvoyage":11897,"▁blizzheroes":11898,"▁alllivesmatter":11899,"▁danisnotonfire":11900,"▁foxnewû":11901,"▁softenza":11902,"▁corleonedaboss":11903,"▁esteemed":11904,"▁greenharvard":11905,"▁mishacollins":11906,"▁lawsuit":11907,"▁davidcameron":11908,"▁dystopian":11909,"▁etisalat":11910,"▁banerjee":11911,"▁mcmahon":11912,"▁politifiact":11913,"▁protectdenaliwolves":11914,"▁samanthaturne":11915,"▁doublecups":11916,"▁timelapse":11917,"▁routecomplex":11918,"▁livingsafely":11919,"▁alexbelloli":11920,"▁sarcasm":11921,"▁sixmeter":11922,"▁sixpenceee":11923,"▁nickcocofree":11924,"▁eurotunnel":11925,"▁nasasolarsystem":11926,"▁diamorfiend":11927,"▁debatequestionswewantto":11928,"▁themagickidraps":11929,"▁jamaicaplain":11930,"avenicethings":11931,"▁batfanuk":11932,"▁montgomery":11933,"▁montetjwitter":11934,"▁missionhills":11935,"▁cbsbigbrother":11936,"▁hypocrisy":11937,"▁njturnpike":11938,"▁jamaicaobserver":11939,"▁martinmj":11940,"▁chesttorso":11941,"▁noahanyname":11942,"▁tlvfaces":11943,"▁hatchetwielding":11944,"▁thisizbwright":11945,"▁thisiswhywecanth":11946,"▁ouvindo":11947,"▁identitytheft":11948,"▁beckarnley":11949,"▁whitbourne":11950,"▁abuseddesolateamplost":11951,"pastornganga":11952,"▁pattonoswalt":11953,"▁lollapalooza":11954,"▁weyreygidi":11955,"▁meteoearth":11956,"▁mukilteo":11957,"▁eudrylantiqua":11958,"▁noonancindynoonanheartbreak":11959,"▁ameenshaikh":11960,"▁rohnertparkdps":11961,"▁lavenderpoetrycafe":11962,"▁tweetlikeitsseptemberth":11963,"▁debatequestionswewanttohear":11964,"▁thisiswhywecanthavenicethings":11965}